{
  "0": "<unk>",
  "1": "▁그",
  "2": "▁아",
  "3": "▁거",
  "4": "▁이",
  "5": "▁나",
  "6": "▁어",
  "7": "▁하",
  "8": "▁있",
  "9": "▁근",
  "10": "▁안",
  "11": "▁근데",
  "12": "▁뭐",
  "13": "▁가",
  "14": "는데",
  "15": "▁사",
  "16": "▁내",
  "17": "▁다",
  "18": "▁그래",
  "19": "▁같",
  "20": "▁한",
  "21": "니까",
  "22": "▁너",
  "23": "▁아니",
  "24": "▁되",
  "25": "잖아",
  "26": "▁일",
  "27": "▁해",
  "28": "▁막",
  "29": "▁보",
  "30": "▁그냥",
  "31": "▁그런",
  "32": "▁내가",
  "33": "▁진",
  "34": "▁때",
  "35": "▁오",
  "36": "▁없",
  "37": "▁많",
  "38": "▁지",
  "39": "▁진짜",
  "40": "▁수",
  "41": "▁게",
  "42": "▁시",
  "43": "▁그거",
  "44": "▁그래서",
  "45": "▁우",
  "46": "렇게",
  "47": "▁말",
  "48": "▁이제",
  "49": "▁생",
  "50": "▁먹",
  "51": "▁좋",
  "52": "에서",
  "53": "▁했",
  "54": "가지",
  "55": "라고",
  "56": "▁우리",
  "57": "면은",
  "58": "▁그러",
  "59": "▁거야",
  "60": "▁사람",
  "61": "▁자",
  "62": "▁좀",
  "63": "▁알",
  "64": "▁나는",
  "65": "▁잘",
  "66": "▁생각",
  "67": "▁들",
  "68": "▁여",
  "69": "▁너무",
  "70": "▁않",
  "71": "가지고",
  "72": "다고",
  "73": "▁정",
  "74": "▁맞",
  "75": "▁약",
  "76": "▁대",
  "77": "▁만",
  "78": "▁거기",
  "79": "으로",
  "80": "▁같애",
  "81": "거든",
  "82": "▁많이",
  "83": "▁원",
  "84": "▁또",
  "85": "▁할",
  "86": "▁학",
  "87": "▁약간",
  "88": "▁모",
  "89": "▁얘",
  "90": "▁애",
  "91": "▁기",
  "92": "▁주",
  "93": "▁엄",
  "94": "▁못",
  "95": "▁걔",
  "96": "▁있어",
  "97": "▁같은",
  "98": "▁지금",
  "99": "▁하고",
  "100": "하고",
  "101": "들이",
  "102": "▁싶",
  "103": "▁건",
  "104": "▁되게",
  "105": "▁인",
  "106": "▁응",
  "107": "▁왜",
  "108": "▁이런",
  "109": "▁전",
  "110": "▁그게",
  "111": "▁그렇게",
  "112": "▁마",
  "113": "▁하는",
  "114": "▁그때",
  "115": "▁더",
  "116": "▁이렇게",
  "117": "▁음",
  "118": "▁있는",
  "119": "▁난",
  "120": "▁것",
  "121": "하는",
  "122": "▁번",
  "123": "▁갔",
  "124": "▁무",
  "125": "▁데",
  "126": "▁얘기",
  "127": "면서",
  "128": "▁들어",
  "129": "▁저",
  "130": "▁중",
  "131": "리고",
  "132": "▁삼",
  "133": "▁고",
  "134": "▁바",
  "135": "▁걸",
  "136": "▁친",
  "137": "이야",
  "138": "었어",
  "139": "▁집",
  "140": "▁나도",
  "141": "▁돼",
  "142": "▁계",
  "143": "▁요",
  "144": "▁쫌",
  "145": "▁공",
  "146": "▁스",
  "147": "한테",
  "148": "▁봤",
  "149": "▁부",
  "150": "▁살",
  "151": "▁영",
  "152": "▁재",
  "153": "다가",
  "154": "▁제",
  "155": "▁좋아",
  "156": "▁비",
  "157": "▁모르",
  "158": "▁뭔",
  "159": "▁그니까",
  "160": "▁개",
  "161": "까지",
  "162": "▁연",
  "163": "▁돈",
  "164": "▁동",
  "165": "▁그리고",
  "166": "▁없어",
  "167": "▁아니야",
  "168": "▁봐",
  "169": "더라고",
  "170": "으면",
  "171": "▁맞아",
  "172": "으니까",
  "173": "▁엄청",
  "174": "▁언",
  "175": "▁시간",
  "176": "▁그럼",
  "177": "▁친구",
  "178": "해서",
  "179": "▁그랬",
  "180": "▁두",
  "181": "▁신",
  "182": "▁딱",
  "183": "▁갈",
  "184": "▁받",
  "185": "▁그렇",
  "186": "▁남",
  "187": "▁세",
  "188": "▁같이",
  "189": "▁정도",
  "190": "▁상",
  "191": "▁예",
  "192": "▁아이",
  "193": "▁올",
  "194": "▁배",
  "195": "▁자기",
  "196": "▁따",
  "197": "▁서",
  "198": "▁하나",
  "199": "▁해야",
  "200": "▁물",
  "201": "▁계속",
  "202": "▁뭔가",
  "203": "▁월",
  "204": "▁거지",
  "205": "겠다",
  "206": "▁차",
  "207": "▁달",
  "208": "었는데",
  "209": "▁어떻",
  "210": "▁분",
  "211": "▁와",
  "212": "▁유",
  "213": "▁것도",
  "214": "▁야",
  "215": "▁구",
  "216": "에는",
  "217": "▁어떻게",
  "218": "▁누",
  "219": "▁괜",
  "220": "이랑",
  "221": "▁그러면",
  "222": "▁원래",
  "223": "▁얼",
  "224": "▁이러",
  "225": "▁있잖아",
  "226": "▁엄마",
  "227": "▁열",
  "228": "▁미",
  "229": "▁이거",
  "230": "▁가서",
  "231": "▁명",
  "232": "▁있고",
  "233": "▁느",
  "234": "▁소",
  "235": "▁그래도",
  "236": "▁이게",
  "237": "▁몰",
  "238": "▁십",
  "239": "▁쓰",
  "240": "▁경",
  "241": "▁니",
  "242": "▁년",
  "243": "▁힘",
  "244": "▁선",
  "245": "▁가지",
  "246": "▁간",
  "247": "다는",
  "248": "▁맛",
  "249": "▁날",
  "250": "▁일단",
  "251": "▁요즘",
  "252": "▁별",
  "253": "▁괜찮",
  "254": "겠지",
  "255": "▁입",
  "256": "▁몇",
  "257": "부터",
  "258": "▁학교",
  "259": "겠어",
  "260": "▁조",
  "261": "▁보고",
  "262": "번에",
  "263": "▁먹고",
  "264": "▁끝",
  "265": "▁타",
  "266": "▁애들",
  "267": "▁되는",
  "268": "하게",
  "269": "▁교",
  "270": "▁노",
  "271": "▁해서",
  "272": "▁도",
  "273": "▁처",
  "274": "▁재밌",
  "275": "▁있는데",
  "276": "▁된",
  "277": "▁반",
  "278": "▁방",
  "279": "▁아무",
  "280": "▁어디",
  "281": "▁나오",
  "282": "▁적",
  "283": "▁문",
  "284": "▁맨",
  "285": "▁했는데",
  "286": "▁거의",
  "287": "▁될",
  "288": "▁그치",
  "289": "더라",
  "290": "▁놀",
  "291": "▁같은데",
  "292": "▁사람이",
  "293": "▁좋은",
  "294": "▁알아",
  "295": "▁무슨",
  "296": "야지",
  "297": "▁왔",
  "298": "▁처음",
  "299": "▁그걸",
  "300": "▁편",
  "301": "▁하면",
  "302": "인데",
  "303": "가지구",
  "304": "았어",
  "305": "▁팔",
  "306": "▁사람들",
  "307": "▁하지",
  "308": "구나",
  "309": "하지",
  "310": "학교",
  "311": "▁별로",
  "312": "▁솔",
  "313": "것도",
  "314": "▁다른",
  "315": "▁피",
  "316": "▁당",
  "317": "▁네",
  "318": "▁싫",
  "319": "▁운",
  "320": "▁여기",
  "321": "▁영화",
  "322": "▁카",
  "323": "▁과",
  "324": "▁성",
  "325": "▁아직",
  "326": "▁본",
  "327": "보다",
  "328": "▁힘들",
  "329": "▁공부",
  "330": "▁솔직",
  "331": "▁너가",
  "332": "▁했어",
  "333": "▁인제",
  "334": "▁됐",
  "335": "▁줄",
  "336": "이라",
  "337": "▁그건",
  "338": "▁완",
  "339": "▁어떤",
  "340": "▁솔직히",
  "341": "▁맨날",
  "342": "▁화",
  "343": "▁형",
  "344": "▁언니",
  "345": "▁보니까",
  "346": "밖에",
  "347": "▁있지",
  "348": "▁거기서",
  "349": "▁오늘",
  "350": "던데",
  "351": "▁얼마",
  "352": "▁알바",
  "353": "▁치",
  "354": "▁장",
  "355": "▁점",
  "356": "려고",
  "357": "▁까",
  "358": "▁않아",
  "359": "▁결",
  "360": "▁가는",
  "361": "을까",
  "362": "▁아닌",
  "363": "▁술",
  "364": "▁불",
  "365": "▁하는데",
  "366": "▁드",
  "367": "어서",
  "368": "▁쪼",
  "369": "▁강",
  "370": "▁위",
  "371": "▁우리가",
  "372": "▁가고",
  "373": "▁거는",
  "374": "▁기억",
  "375": "▁회",
  "376": "▁금",
  "377": "▁만나",
  "378": "▁사실",
  "379": "▁쪽",
  "380": "하면",
  "381": "▁싶은",
  "382": "▁있었",
  "383": "▁말이야",
  "384": "▁볼",
  "385": "▁몰라",
  "386": "▁혼",
  "387": "인가",
  "388": "▁때문",
  "389": "▁맛있",
  "390": "▁에",
  "391": "▁관",
  "392": "▁수도",
  "393": "▁왜냐",
  "394": "▁그래가지고",
  "395": "▁완전",
  "396": "▁다시",
  "397": "▁어제",
  "398": "▁버",
  "399": "▁다음",
  "400": "이나",
  "401": "▁육",
  "402": "▁아빠",
  "403": "▁갑",
  "404": "▁다니",
  "405": "▁느낌",
  "406": "▁아니라",
  "407": "갖고",
  "408": "▁식",
  "409": "▁빨",
  "410": "▁초",
  "411": "▁작",
  "412": "기도",
  "413": "▁때문에",
  "414": "▁아니면",
  "415": "▁먹어",
  "416": "▁들어가",
  "417": "▁사람들이",
  "418": "▁이십",
  "419": "▁여자",
  "420": "▁제일",
  "421": "▁실",
  "422": "▁돌",
  "423": "▁가지고",
  "424": "▁파",
  "425": "자기",
  "426": "▁있을",
  "427": "▁준",
  "428": "▁정말",
  "429": "▁걔가",
  "430": "▁되는데",
  "431": "▁싸",
  "432": "▁밥",
  "433": "▁찾",
  "434": "▁애들이",
  "435": "▁의",
  "436": "보고",
  "437": "▁싶어",
  "438": "▁외",
  "439": "▁갑자기",
  "440": "이지",
  "441": "▁둘",
  "442": "요일",
  "443": "▁취",
  "444": "▁군",
  "445": "▁없는",
  "446": "▁크",
  "447": "▁확",
  "448": "▁너는",
  "449": "▁이번에",
  "450": "▁필",
  "451": "▁건데",
  "452": "▁최",
  "453": "▁새",
  "454": "▁백",
  "455": "▁그거는",
  "456": "▁단",
  "457": "▁되지",
  "458": "했어",
  "459": "▁혼자",
  "460": "▁나가",
  "461": "▁일본",
  "462": "▁게임",
  "463": "적으로",
  "464": "▁그럴",
  "465": "▁보면",
  "466": "▁심",
  "467": "▁여행",
  "468": "▁머",
  "469": "▁아예",
  "470": "▁바로",
  "471": "▁넘",
  "472": "처럼",
  "473": "▁추",
  "474": "▁매",
  "475": "▁그것도",
  "476": "▁눈",
  "477": "▁때는",
  "478": "▁이상",
  "479": "▁말고",
  "480": "▁앞",
  "481": "▁전에",
  "482": "▁이케",
  "483": "아서",
  "484": "▁끝나",
  "485": "▁되고",
  "486": "▁걔네",
  "487": "이가",
  "488": "▁모르겠어",
  "489": "▁갔다",
  "490": "▁물어",
  "491": "▁옛",
  "492": "▁오빠",
  "493": "▁니가",
  "494": "▁아마",
  "495": "▁뭐지",
  "496": "지는",
  "497": "▁생각을",
  "498": "▁그러면은",
  "499": "▁키",
  "500": "▁남자",
  "501": "▁옛날",
  "502": "중에",
  "503": "▁언제",
  "504": "▁한데",
  "505": "▁집에",
  "506": "▁학년",
  "507": "▁한번",
  "508": "▁생각해",
  "509": "▁찍",
  "510": "▁칠",
  "511": "▁아니고",
  "512": "▁잡",
  "513": "▁봤어",
  "514": "기가",
  "515": "라는",
  "516": "▁그서",
  "517": "▁나왔",
  "518": "▁운동",
  "519": "▁빠",
  "520": "▁만들",
  "521": "▁토",
  "522": "거나",
  "523": "▁하니까",
  "524": "대로",
  "525": "▁발",
  "526": "▁가면",
  "527": "▁목",
  "528": "▁똑",
  "529": "리가",
  "530": "▁온",
  "531": "▁감",
  "532": "▁귀",
  "533": "▁포",
  "534": "이고",
  "535": "▁만약",
  "536": "▁벌",
  "537": "▁왜냐면",
  "538": "▁문제",
  "539": "▁듣",
  "540": "▁프",
  "541": "리는",
  "542": "▁큰",
  "543": "지만",
  "544": "▁한국",
  "545": "▁맞어",
  "546": "▁나한테",
  "547": "▁그거를",
  "548": "▁그러고",
  "549": "▁않을까",
  "550": "▁짜",
  "551": "▁연락",
  "552": "▁올라",
  "553": "▁직",
  "554": "▁그러니까",
  "555": "▁써",
  "556": "▁뭐야",
  "557": "▁항",
  "558": "▁잠",
  "559": "▁나중에",
  "560": "▁책",
  "561": "▁빨리",
  "562": "▁싫어",
  "563": "▁후",
  "564": "▁나와",
  "565": "▁길",
  "566": "▁먹을",
  "567": "▁해도",
  "568": "▁똑같",
  "569": "이었",
  "570": "은데",
  "571": "▁호",
  "572": "▁하면은",
  "573": "▁생각이",
  "574": "▁붙",
  "575": "님이",
  "576": "으면은",
  "577": "▁대학",
  "578": "▁모르겠",
  "579": "▁만약에",
  "580": "▁어차",
  "581": "들은",
  "582": "▁평",
  "583": "▁뭘",
  "584": "▁옷",
  "585": "▁먹는",
  "586": "▁어차피",
  "587": "▁많아",
  "588": "▁국",
  "589": "▁해가지고",
  "590": "▁손",
  "591": "▁사진",
  "592": "니깐",
  "593": "▁거잖아",
  "594": "등학교",
  "595": "▁커",
  "596": "▁졸",
  "597": "▁설",
  "598": "▁아냐",
  "599": "▁통",
  "600": "적인",
  "601": "이라고",
  "602": "▁보면은",
  "603": "▁시험",
  "604": "▁현",
  "605": "▁죽",
  "606": "▁그렇지",
  "607": "더니",
  "608": "▁서울",
  "609": "▁그까",
  "610": "▁오래",
  "611": "▁삼십",
  "612": "이잖아",
  "613": "▁선생",
  "614": "▁얘기를",
  "615": "▁떨",
  "616": "▁자기가",
  "617": "▁산",
  "618": "▁아침",
  "619": "냐고",
  "620": "▁이번",
  "621": "▁라",
  "622": "기는",
  "623": "▁엄마가",
  "624": "▁종",
  "625": "▁코",
  "626": "▁걔는",
  "627": "▁군대",
  "628": "▁순",
  "629": "에도",
  "630": "▁있으니까",
  "631": "▁면",
  "632": "▁뒤",
  "633": "▁보는",
  "634": "▁웃",
  "635": "▁하면서",
  "636": "▁마음",
  "637": "주고",
  "638": "▁홍",
  "639": "▁필요",
  "640": "▁시작",
  "641": "하다",
  "642": "▁없고",
  "643": "▁나랑",
  "644": "▁가야",
  "645": "놓고",
  "646": "▁하루",
  "647": "해야",
  "648": "▁누구",
  "649": "▁참",
  "650": "▁넣",
  "651": "▁학원",
  "652": "▁항상",
  "653": "▁양",
  "654": "▁어쨌",
  "655": "▁찾아",
  "656": "▁빼",
  "657": "▁있으면",
  "658": "이는",
  "659": "기로",
  "660": "이니까",
  "661": "▁돌아",
  "662": "▁병",
  "663": "▁거고",
  "664": "▁노래",
  "665": "▁알고",
  "666": "▁있다",
  "667": "지도",
  "668": "▁등",
  "669": "▁집에서",
  "670": "▁타고",
  "671": "▁준비",
  "672": "▁먼",
  "673": "▁떨어",
  "674": "심히",
  "675": "▁보통",
  "676": "▁특",
  "677": "▁봤는데",
  "678": "▁어쨌든",
  "679": "▁않았",
  "680": "마다",
  "681": "▁되잖아",
  "682": "였어",
  "683": "▁열심히",
  "684": "▁옆",
  "685": "▁영어",
  "686": "▁같아",
  "687": "▁거를",
  "688": "었거든",
  "689": "▁걸로",
  "690": "었던",
  "691": "▁읽",
  "692": "▁비싸",
  "693": "▁확실",
  "694": "▁뭐라",
  "695": "▁이름",
  "696": "지가",
  "697": "머니",
  "698": "▁머리",
  "699": "▁따른",
  "700": "▁시간이",
  "701": "▁아까",
  "702": "▁쪼끔",
  "703": "▁중에",
  "704": "겠네",
  "705": "▁전화",
  "706": "▁나서",
  "707": "▁당연",
  "708": "▁글",
  "709": "▁회사",
  "710": "▁나온",
  "711": "▁때도",
  "712": "▁식으로",
  "713": "어나",
  "714": "주는",
  "715": "▁쉬",
  "716": "었잖아",
  "717": "▁우리는",
  "718": "▁말을",
  "719": "▁핸",
  "720": "▁이랬",
  "721": "▁졸업",
  "722": "하니까",
  "723": "▁으",
  "724": "▁박",
  "725": "▁돈이",
  "726": "▁체",
  "727": "▁되니까",
  "728": "▁경우",
  "729": "▁복",
  "730": "라서",
  "731": "▁동안",
  "732": "▁보여",
  "733": "▁있거든",
  "734": "▁몸",
  "735": "▁되나",
  "736": "▁조금",
  "737": "▁우리나",
  "738": "▁배우",
  "739": "▁담",
  "740": "이면",
  "741": "▁내일",
  "742": "하잖아",
  "743": "하는데",
  "744": "▁너네",
  "745": "▁천",
  "746": "▁너도",
  "747": "▁디",
  "748": "▁내려",
  "749": "지고",
  "750": "▁이미",
  "751": "▁끝나고",
  "752": "▁늦",
  "753": "▁다섯",
  "754": "다음",
  "755": "▁가자",
  "756": "▁자체",
  "757": "▁티",
  "758": "▁메",
  "759": "▁핸드",
  "760": "▁했잖아",
  "761": "▁굳",
  "762": "▁휴",
  "763": "▁어느",
  "764": "▁보내",
  "765": "▁비슷",
  "766": "▁받아",
  "767": "▁하잖아",
  "768": "▁동생",
  "769": "았는데",
  "770": "었지",
  "771": "▁수가",
  "772": "했는데",
  "773": "▁출",
  "774": "▁수업",
  "775": "▁쓸",
  "776": "▁핸드폰",
  "777": "▁많은",
  "778": "▁대해서",
  "779": "▁없잖아",
  "780": "▁넌",
  "781": "▁와서",
  "782": "▁했지",
  "783": "▁절",
  "784": "▁그다음",
  "785": "▁지금은",
  "786": "▁있었어",
  "787": "▁이래",
  "788": "▁뭐가",
  "789": "▁합",
  "790": "는지",
  "791": "▁고등학교",
  "792": "▁누가",
  "793": "▁중국",
  "794": "▁싶다",
  "795": "▁말이",
  "796": "▁요새",
  "797": "▁뽑",
  "798": "▁교수",
  "799": "▁일이",
  "800": "▁아는",
  "801": "▁돈을",
  "802": "봤어",
  "803": "▁처음에",
  "804": "▁굳이",
  "805": "▁우리나라",
  "806": "▁갔는데",
  "807": "▁드라",
  "808": "▁청",
  "809": "▁그쪽",
  "810": "▁먼저",
  "811": "▁이러고",
  "812": "▁음식",
  "813": "▁저번에",
  "814": "▁샀",
  "815": "▁행",
  "816": "▁끊",
  "817": "▁역",
  "818": "▁있었는데",
  "819": "▁없지",
  "820": "▁은",
  "821": "▁학기",
  "822": "▁따로",
  "823": "이다",
  "824": "들도",
  "825": "▁결혼",
  "826": "▁혹",
  "827": "▁얼마나",
  "828": "▁다르",
  "829": "▁꼭",
  "830": "▁봤을",
  "831": "▁리",
  "832": "시는",
  "833": "▁풀",
  "834": "▁나이",
  "835": "▁이러면서",
  "836": "▁얼굴",
  "837": "드라고",
  "838": "▁망",
  "839": "▁기억이",
  "840": "▁사고",
  "841": "▁선생님",
  "842": "▁갖고",
  "843": "▁싶은데",
  "844": "▁옛날에",
  "845": "▁그런데",
  "846": "▁중요",
  "847": "▁겨",
  "848": "▁둘이",
  "849": "▁확실히",
  "850": "▁다음에",
  "851": "▁된다",
  "852": "▁그만",
  "853": "니다",
  "854": "▁프로",
  "855": "▁스타",
  "856": "▁일을",
  "857": "▁하더라고",
  "858": "▁그랬어",
  "859": "▁오십",
  "860": "▁높",
  "861": "▁예전",
  "862": "▁축",
  "863": "▁고민",
  "864": "하면서",
  "865": "▁아닌데",
  "866": "▁있어서",
  "867": "▁패",
  "868": "▁멀",
  "869": "했던",
  "870": "리를",
  "871": "▁나오는",
  "872": "▁애가",
  "873": "▁재미",
  "874": "▁했던",
  "875": "▁사는",
  "876": "▁태",
  "877": "▁아니면은",
  "878": "▁쪼금",
  "879": "▁갔어",
  "880": "▁좋아하는",
  "881": "▁꺼",
  "882": "끼리",
  "883": "▁친구가",
  "884": "▁누나",
  "885": "▁같고",
  "886": "▁상관",
  "887": "▁시에",
  "888": "▁밤",
  "889": "▁저녁",
  "890": "▁물론",
  "891": "▁모르겠는데",
  "892": "어가",
  "893": "▁거에",
  "894": "▁검",
  "895": "▁맞는",
  "896": "▁베",
  "897": "▁가면은",
  "898": "해가지고",
  "899": "▁없는데",
  "900": "▁속",
  "901": "▁드라마",
  "902": "기를",
  "903": "▁부분",
  "904": "▁뭐냐",
  "905": "▁허",
  "906": "▁충",
  "907": "▁욕",
  "908": "보다는",
  "909": "▁무서",
  "910": "▁건가",
  "911": "▁알지",
  "912": "▁텐",
  "913": "▁딱히",
  "914": "▁무조",
  "915": "▁안에",
  "916": "▁한다",
  "917": "▁혹시",
  "918": "▁무조건",
  "919": "▁곳",
  "920": "▁이해",
  "921": "▁몰랐",
  "922": "▁여섯",
  "923": "▁되면",
  "924": "▁저기",
  "925": "▁용",
  "926": "▁어려",
  "927": "▁쓰고",
  "928": "▁부모",
  "929": "▁케",
  "930": "▁페",
  "931": "▁요즘에",
  "932": "드라",
  "933": "▁가끔",
  "934": "라리",
  "935": "▁신기",
  "936": "▁아빠가",
  "937": "▁쓰는",
  "938": "▁거니까",
  "939": "▁레",
  "940": "▁개월",
  "941": "▁깨",
  "942": "▁사이",
  "943": "▁오히",
  "944": "겠지만",
  "945": "에서는",
  "946": "스트",
  "947": "▁오히려",
  "948": "▁해야지",
  "949": "▁번도",
  "950": "▁그랬는데",
  "951": "▁독",
  "952": "▁김",
  "953": "래도",
  "954": "하기",
  "955": "▁홍대",
  "956": "▁마지",
  "957": "▁들고",
  "958": "▁일어나",
  "959": "▁차라리",
  "960": "어야",
  "961": "▁그것",
  "962": "▁아니지",
  "963": "▁여러",
  "964": "▁않았어",
  "965": "▁지나",
  "966": "▁하다가",
  "967": "▁밖에",
  "968": "▁썼",
  "969": "▁근까",
  "970": "▁컴",
  "971": "▁카페",
  "972": "▁주고",
  "973": "▁최근",
  "974": "▁가족",
  "975": "▁낫",
  "976": "▁하긴",
  "977": "▁짐",
  "978": "▁마지막",
  "979": "▁알았어",
  "980": "▁달라",
  "981": "▁작년",
  "982": "▁앉",
  "983": "▁좋아해",
  "984": "▁사람은",
  "985": "인이",
  "986": "▁주변",
  "987": "▁당연히",
  "988": "▁마시",
  "989": "▁채",
  "990": "▁걱",
  "991": "▁소리",
  "992": "▁갔을",
  "993": "▁거기에",
  "994": "▁대학교",
  "995": "▁겨울",
  "996": "한데",
  "997": "하면은",
  "998": "▁헤",
  "999": "▁있다고",
  "1000": "▁아침에",
  "1001": "▁달에",
  "1002": "▁골",
  "1003": "▁서로",
  "1004": "▁줘",
  "1005": "▁암",
  "1006": "▁캐",
  "1007": "▁걱정",
  "1008": "▁앞에",
  "1009": "▁워",
  "1010": "▁취업",
  "1011": "▁테",
  "1012": "▁끼",
  "1013": "▁텐데",
  "1014": "▁내용",
  "1015": "▁명이",
  "1016": "▁오는",
  "1017": "▁그런가",
  "1018": "라도",
  "1019": "▁괜찮아",
  "1020": "▁아닌가",
  "1021": "▁사십",
  "1022": "▁자꾸",
  "1023": "들이랑",
  "1024": "▁땐",
  "1025": "▁외국",
  "1026": "▁궁",
  "1027": "장이",
  "1028": "세요",
  "1029": "▁잘못",
  "1030": "▁대한",
  "1031": "▁관심",
  "1032": "가는",
  "1033": "▁생각보다",
  "1034": "▁어떡",
  "1035": "▁힘들어",
  "1036": "▁이유",
  "1037": "▁지원",
  "1038": "▁그지",
  "1039": "▁살아",
  "1040": "▁적이",
  "1041": "▁그렇고",
  "1042": "▁떠",
  "1043": "▁화장",
  "1044": "▁로",
  "1045": "▁새로",
  "1046": "▁트",
  "1047": "▁민",
  "1048": "들을",
  "1049": "했잖아",
  "1050": "▁자주",
  "1051": "봤는데",
  "1052": "▁거기는",
  "1053": "스타",
  "1054": "▁색",
  "1055": "▁주는",
  "1056": "▁언니가",
  "1057": "▁표",
  "1058": "▁일주",
  "1059": "▁느낌이",
  "1060": "▁일단은",
  "1061": "▁빌",
  "1062": "▁딸",
  "1063": "어도",
  "1064": "▁걍",
  "1065": "보니까",
  "1066": "▁광",
  "1067": "▁중간",
  "1068": "▁아무래도",
  "1069": "▁제가",
  "1070": "▁투",
  "1071": "▁입고",
  "1072": "주도",
  "1073": "▁없어서",
  "1074": "▁나쁘",
  "1075": "▁유명",
  "1076": "▁없으니까",
  "1077": "▁버스",
  "1078": "▁딴",
  "1079": "▁없이",
  "1080": "▁부산",
  "1081": "▁있나",
  "1082": "▁하다",
  "1083": "에서도",
  "1084": "▁먹으",
  "1085": "▁좋지",
  "1086": "▁봐야",
  "1087": "▁일주일",
  "1088": "▁해주",
  "1089": "▁말해",
  "1090": "▁된다고",
  "1091": "▁그리",
  "1092": "▁탈",
  "1093": "▁답",
  "1094": "▁쉽",
  "1095": "▁여름",
  "1096": "워서",
  "1097": "▁않나",
  "1098": "▁첫",
  "1099": "▁거기가",
  "1100": "▁데가",
  "1101": "▁한다고",
  "1102": "▁슬",
  "1103": "▁사람들은",
  "1104": "▁주말",
  "1105": "▁상황",
  "1106": "▁학생",
  "1107": "▁알려",
  "1108": "▁굉",
  "1109": "▁질",
  "1110": "▁챙",
  "1111": "▁아파",
  "1112": "▁영상",
  "1113": "▁잠깐",
  "1114": "▁생활",
  "1115": "▁아무것도",
  "1116": "▁많고",
  "1117": "졌어",
  "1118": "▁받고",
  "1119": "▁굉장",
  "1120": "▁듣고",
  "1121": "▁유튜",
  "1122": "▁않고",
  "1123": "이스",
  "1124": "▁결국",
  "1125": "▁면접",
  "1126": "▁아프",
  "1127": "▁울",
  "1128": "▁급",
  "1129": "▁먹었",
  "1130": "▁재수",
  "1131": "▁그때는",
  "1132": "▁너랑",
  "1133": "▁왔어",
  "1134": "▁사람도",
  "1135": "▁틀",
  "1136": "▁하자",
  "1137": "▁말하는",
  "1138": "▁났",
  "1139": "▁쌤",
  "1140": "▁그날",
  "1141": "▁굉장히",
  "1142": "▁판",
  "1143": "▁기분",
  "1144": "▁옆에",
  "1145": "▁팀",
  "1146": "▁다녀",
  "1147": "▁자체가",
  "1148": "한다",
  "1149": "▁병원",
  "1150": "▁만났",
  "1151": "▁훨",
  "1152": "▁걔도",
  "1153": "▁긍",
  "1154": "▁궁금",
  "1155": "▁일찍",
  "1156": "▁가게",
  "1157": "▁아무튼",
  "1158": "▁쳐",
  "1159": "▁그래가지구",
  "1160": "▁됐어",
  "1161": "▁그다음에",
  "1162": "▁중학교",
  "1163": "이트",
  "1164": "▁진짜로",
  "1165": "▁친구들",
  "1166": "▁훨씬",
  "1167": "▁내년",
  "1168": "▁괜찮은",
  "1169": "▁보러",
  "1170": "▁귀찮",
  "1171": "▁논",
  "1172": "▁뛰",
  "1173": "▁최근에",
  "1174": "▁맥",
  "1175": "▁하게",
  "1176": "이었어",
  "1177": "▁살짝",
  "1178": "▁절대",
  "1179": "▁여덟",
  "1180": "▁먹었어",
  "1181": "▁뜨",
  "1182": "▁같긴",
  "1183": "▁환",
  "1184": "▁가져",
  "1185": "▁애들은",
  "1186": "사를",
  "1187": "였지",
  "1188": "▁저는",
  "1189": "▁스트",
  "1190": "▁어쩔",
  "1191": "▁축구",
  "1192": "다니까",
  "1193": "▁하기",
  "1194": "▁올해",
  "1195": "봐야",
  "1196": "▁재밌어",
  "1197": "▁가까",
  "1198": "▁늦게",
  "1199": "▁따라",
  "1200": "학생",
  "1201": "▁얘가",
  "1202": "▁모르겠다",
  "1203": "▁공부를",
  "1204": "▁잔",
  "1205": "▁제주도",
  "1206": "▁터",
  "1207": "였는데",
  "1208": "▁했거든",
  "1209": "▁가격",
  "1210": "▁운전",
  "1211": "지를",
  "1212": "▁여기서",
  "1213": "▁스물",
  "1214": "▁있긴",
  "1215": "▁학점",
  "1216": "▁하나도",
  "1217": "▁크게",
  "1218": "▁근처",
  "1219": "▁밑",
  "1220": "▁헬",
  "1221": "▁음악",
  "1222": "▁만들어",
  "1223": "▁동네",
  "1224": "▁놀러",
  "1225": "▁없을",
  "1226": "▁줬",
  "1227": "▁그분",
  "1228": "▁신청",
  "1229": "▁쪽으로",
  "1230": "▁클",
  "1231": "▁다닐",
  "1232": "▁좋을",
  "1233": "▁생겼",
  "1234": "▁아직도",
  "1235": "▁미국",
  "1236": "▁스타일",
  "1237": "▁일곱",
  "1238": "▁어디서",
  "1239": "▁자격",
  "1240": "▁보면서",
  "1241": "력이",
  "1242": "▁지하",
  "1243": "▁거랑",
  "1244": "▁전공",
  "1245": "▁힘든",
  "1246": "▁거라고",
  "1247": "▁상관없",
  "1248": "▁이상한",
  "1249": "▁이천",
  "1250": "▁플",
  "1251": "▁카톡",
  "1252": "▁없다",
  "1253": "▁이만",
  "1254": "▁가기",
  "1255": "▁시켜",
  "1256": "▁갔다가",
  "1257": "▁다들",
  "1258": "▁수능",
  "1259": "▁뭐라고",
  "1260": "레스",
  "1261": "▁좋아하",
  "1262": "▁방학",
  "1263": "▁인터",
  "1264": "▁때부터",
  "1265": "▁계획",
  "1266": "▁같다",
  "1267": "▁기다",
  "1268": "▁아니잖아",
  "1269": "려서",
  "1270": "정이",
  "1271": "있는",
  "1272": "▁돼서",
  "1273": "▁유튜브",
  "1274": "▁할머니",
  "1275": "드는",
  "1276": "▁가장",
  "1277": "르고",
  "1278": "▁맛있는",
  "1279": "▁나올",
  "1280": "▁그걸로",
  "1281": "▁신경",
  "1282": "▁예전에",
  "1283": "▁동아",
  "1284": "▁성격",
  "1285": "▁먹으면",
  "1286": "▁들어오",
  "1287": "까지는",
  "1288": "▁알았",
  "1289": "던가",
  "1290": "▁받는",
  "1291": "▁변",
  "1292": "대가",
  "1293": "▁숙",
  "1294": "▁얘기해",
  "1295": "▁불편",
  "1296": "▁낮",
  "1297": "▁나라",
  "1298": "▁이걸",
  "1299": "▁예를",
  "1300": "▁보다",
  "1301": "사가",
  "1302": "▁없었어",
  "1303": "이크",
  "1304": "▁얘길",
  "1305": "▁있어야",
  "1306": "▁함",
  "1307": "▁강아",
  "1308": "▁며",
  "1309": "▁택",
  "1310": "여서",
  "1311": "▁씨",
  "1312": "이도",
  "1313": "▁모든",
  "1314": "▁개인",
  "1315": "▁빼고",
  "1316": "▁나오고",
  "1317": "▁너한테",
  "1318": "▁때가",
  "1319": "▁헤어",
  "1320": "▁창",
  "1321": "인지",
  "1322": "▁비행",
  "1323": "▁다녔",
  "1324": "▁다니고",
  "1325": "▁일반",
  "1326": "▁수영",
  "1327": "▁짜증",
  "1328": "▁했을",
  "1329": "었고",
  "1330": "보면",
  "1331": "했지",
  "1332": "▁사회",
  "1333": "어가지고",
  "1334": "▁미안",
  "1335": "▁아닐",
  "1336": "▁간다",
  "1337": "▁맘",
  "1338": "자고",
  "1339": "▁연습",
  "1340": "▁오고",
  "1341": "▁들어서",
  "1342": "었나",
  "1343": "에다가",
  "1344": "▁제대로",
  "1345": "▁브",
  "1346": "이라서",
  "1347": "한다고",
  "1348": "▁컴퓨",
  "1349": "▁이야",
  "1350": "까진",
  "1351": "▁맞춰",
  "1352": "▁하지만",
  "1353": "▁건지",
  "1354": "▁컴퓨터",
  "1355": "▁들었어",
  "1356": "▁떡",
  "1357": "▁좋겠다",
  "1358": "▁쓴",
  "1359": "▁자격증",
  "1360": "땜에",
  "1361": "▁상태",
  "1362": "▁승",
  "1363": "▁말야",
  "1364": "▁받았",
  "1365": "▁어렵",
  "1366": "했을",
  "1367": "▁그러는",
  "1368": "▁이따",
  "1369": "▁가는데",
  "1370": "▁헬스",
  "1371": "▁기본",
  "1372": "▁아버",
  "1373": "▁교수님",
  "1374": "▁많잖아",
  "1375": "렸을",
  "1376": "▁봐도",
  "1377": "리스",
  "1378": "렸어",
  "1379": "▁좋은데",
  "1380": "하다고",
  "1381": "▁늘",
  "1382": "▁가도",
  "1383": "▁보기",
  "1384": "▁이건",
  "1385": "▁오빠가",
  "1386": "▁때마다",
  "1387": "▁교회",
  "1388": "▁형이",
  "1389": "▁거면",
  "1390": "▁활",
  "1391": "▁선배",
  "1392": "랜드",
  "1393": "에요",
  "1394": "▁좋았",
  "1395": "▁생각하고",
  "1396": "▁자고",
  "1397": "▁다니는",
  "1398": "었다",
  "1399": "▁끄",
  "1400": "수가",
  "1401": "▁냄",
  "1402": "▁여자애",
  "1403": "▁꾸",
  "1404": "시고",
  "1405": "▁깔",
  "1406": "▁긍까",
  "1407": "▁오만",
  "1408": "▁점심",
  "1409": "이라는",
  "1410": "▁벌써",
  "1411": "하긴",
  "1412": "▁뒤에",
  "1413": "▁수학",
  "1414": "▁할려고",
  "1415": "▁층",
  "1416": "겠다고",
  "1417": "▁왜냐면은",
  "1418": "웠어",
  "1419": "▁부모님",
  "1420": "▁땜에",
  "1421": "이네",
  "1422": "습니다",
  "1423": "▁느끼",
  "1424": "▁있다가",
  "1425": "▁입장",
  "1426": "▁접",
  "1427": "▁데서",
  "1428": "▁에이",
  "1429": "▁퍼",
  "1430": "▁정확",
  "1431": "▁고양",
  "1432": "보는",
  "1433": "▁분위",
  "1434": "▁빵",
  "1435": "▁새벽",
  "1436": "었을",
  "1437": "려면",
  "1438": "▁착",
  "1439": "▁스트레스",
  "1440": "▁농",
  "1441": "▁아주",
  "1442": "▁문제가",
  "1443": "▁들어갔",
  "1444": "▁똑같은",
  "1445": "▁건강",
  "1446": "▁커피",
  "1447": "▁않은",
  "1448": "▁되면은",
  "1449": "▁꿈",
  "1450": "▁밀",
  "1451": "▁블",
  "1452": "으면서",
  "1453": "▁학교에서",
  "1454": "▁빡",
  "1455": "기고",
  "1456": "우고",
  "1457": "라면",
  "1458": "▁해외",
  "1459": "▁나름",
  "1460": "▁아홉",
  "1461": "▁장난",
  "1462": "원이",
  "1463": "▁챙겨",
  "1464": "▁모르는",
  "1465": "▁하거든",
  "1466": "▁않냐",
  "1467": "▁그러면서",
  "1468": "▁월에",
  "1469": "▁꼬",
  "1470": "▁각",
  "1471": "길래",
  "1472": "제로",
  "1473": "▁있대",
  "1474": "▁하더라",
  "1475": "▁육십",
  "1476": "▁뭔지",
  "1477": "▁같애요",
  "1478": "든지",
  "1479": "▁정도로",
  "1480": "만한",
  "1481": "▁그렇구나",
  "1482": "▁그러지",
  "1483": "▁애기",
  "1484": "▁시키",
  "1485": "▁이후",
  "1486": "▁같기도",
  "1487": "▁이러는",
  "1488": "▁기숙",
  "1489": "▁보이",
  "1490": "▁놓",
  "1491": "▁지하철",
  "1492": "▁멋",
  "1493": "▁치킨",
  "1494": "▁번째",
  "1495": "▁친해",
  "1496": "▁쇼",
  "1497": "▁가능",
  "1498": "▁다이",
  "1499": "▁다행",
  "1500": "▁짧",
  "1501": "▁왔다",
  "1502": "▁우리도",
  "1503": "▁좋겠어",
  "1504": "성이",
  "1505": "▁이거는",
  "1506": "▁생일",
  "1507": "▁지금도",
  "1508": "▁놓고",
  "1509": "▁인터넷",
  "1510": "어요",
  "1511": "▁꽤",
  "1512": "자가",
  "1513": "▁어렸을",
  "1514": "▁초등학교",
  "1515": "▁가르",
  "1516": "▁생각은",
  "1517": "▁갖",
  "1518": "이라도",
  "1519": "▁나쁘지",
  "1520": "▁맞다",
  "1521": "▁며칠",
  "1522": "리면",
  "1523": "▁정해",
  "1524": "▁토요일",
  "1525": "▁있더라고",
  "1526": "▁대박",
  "1527": "▁나와서",
  "1528": "▁극",
  "1529": "▁냄새",
  "1530": "▁정신",
  "1531": "▁나갔",
  "1532": "▁담배",
  "1533": "▁대단",
  "1534": "되는",
  "1535": "스가",
  "1536": "학과",
  "1537": "하다가",
  "1538": "▁악",
  "1539": "▁가야지",
  "1540": "▁비싼",
  "1541": "▁기간",
  "1542": "▁어때",
  "1543": "▁카드",
  "1544": "다니",
  "1545": "▁봉",
  "1546": "▁믿",
  "1547": "였나",
  "1548": "▁라고",
  "1549": "▁동아리",
  "1550": "▁마음이",
  "1551": "▁성적",
  "1552": "▁어머니",
  "1553": "▁그랬잖아",
  "1554": "▁아저",
  "1555": "▁느껴",
  "1556": "▁편의",
  "1557": "▁말도",
  "1558": "▁생각하는",
  "1559": "▁배고",
  "1560": "▁술을",
  "1561": "▁우린",
  "1562": "아야",
  "1563": "▁금요일",
  "1564": "▁사람을",
  "1565": "▁해보고",
  "1566": "▁웬",
  "1567": "▁잤",
  "1568": "레이",
  "1569": "▁왔는데",
  "1570": "▁그랬더니",
  "1571": "▁방송",
  "1572": "▁법",
  "1573": "▁미리",
  "1574": "▁끝났",
  "1575": "▁올라가",
  "1576": "▁있으면은",
  "1577": "▁관련",
  "1578": "▁맛이",
  "1579": "▁암튼",
  "1580": "▁교육",
  "1581": "▁가가지고",
  "1582": "예요",
  "1583": "▁추천",
  "1584": "▁맛있어",
  "1585": "▁아저씨",
  "1586": "▁대화",
  "1587": "▁아님",
  "1588": "▁간다고",
  "1589": "▁그래갖고",
  "1590": "▁깜",
  "1591": "▁색깔",
  "1592": "▁친구랑",
  "1593": "지면",
  "1594": "▁유럽",
  "1595": "▁토익",
  "1596": "▁하루에",
  "1597": "▁억",
  "1598": "▁쌓",
  "1599": "▁알아서",
  "1600": "▁대충",
  "1601": "장을",
  "1602": "▁번씩",
  "1603": "▁자리",
  "1604": "▁휴학",
  "1605": "▁싶어서",
  "1606": "했다",
  "1607": "▁살고",
  "1608": "▁똑같이",
  "1609": "▁나를",
  "1610": "▁자신",
  "1611": "▁선생님이",
  "1612": "▁많은데",
  "1613": "▁오면",
  "1614": "▁편의점",
  "1615": "▁했다",
  "1616": "겠는데",
  "1617": "▁철",
  "1618": "▁이러니까",
  "1619": "▁닭",
  "1620": "▁받을",
  "1621": "▁해봤",
  "1622": "▁짤",
  "1623": "▁놀고",
  "1624": "▁직접",
  "1625": "▁위에",
  "1626": "▁들어가서",
  "1627": "쯤에",
  "1628": "▁재밌는",
  "1629": "▁임",
  "1630": "▁선택",
  "1631": "▁스키",
  "1632": "▁생긴",
  "1633": "▁넘어",
  "1634": "▁않을",
  "1635": "▁와가지고",
  "1636": "▁좋고",
  "1637": "▁사랑",
  "1638": "▁주에",
  "1639": "▁인스타",
  "1640": "▁걔랑",
  "1641": "▁지내",
  "1642": "▁했었는데",
  "1643": "▁총",
  "1644": "▁있었던",
  "1645": "▁데는",
  "1646": "▁말한",
  "1647": "정을",
  "1648": "▁강남",
  "1649": "▁중요한",
  "1650": "▁오천",
  "1651": "▁않는",
  "1652": "▁할까",
  "1653": "▁있어요",
  "1654": "▁해보",
  "1655": "▁만날",
  "1656": "▁맞지",
  "1657": "▁팔십",
  "1658": "▁보지",
  "1659": "▁듣는",
  "1660": "▁시까지",
  "1661": "▁사장",
  "1662": "▁호텔",
  "1663": "줘야",
  "1664": "▁선물",
  "1665": "▁뿌",
  "1666": "거든요",
  "1667": "▁나이가",
  "1668": "마자",
  "1669": "초에",
  "1670": "▁그래야",
  "1671": "스럽",
  "1672": "▁것만",
  "1673": "▁워낙",
  "1674": "▁칠십",
  "1675": "▁퇴",
  "1676": "냐면",
  "1677": "▁낫지",
  "1678": "▁그면",
  "1679": "▁될지",
  "1680": "▁이유가",
  "1681": "▁앞으로",
  "1682": "▁먹은",
  "1683": "▁된대",
  "1684": "▁공연",
  "1685": "▁나가서",
  "1686": "▁거기도",
  "1687": "▁처음에는",
  "1688": "▁효",
  "1689": "▁애들이랑",
  "1690": "▁즐",
  "1691": "주구",
  "1692": "치는",
  "1693": "▁했었어",
  "1694": "▁나왔어",
  "1695": "▁연애",
  "1696": "▁재미없",
  "1697": "▁괜히",
  "1698": "▁애매",
  "1699": "▁업",
  "1700": "던지",
  "1701": "▁그렇긴",
  "1702": "▁경험",
  "1703": "스크",
  "1704": "▁주변에",
  "1705": "▁뉴",
  "1706": "▁좋다",
  "1707": "▁같애서",
  "1708": "▁생각도",
  "1709": "르는",
  "1710": "▁집이",
  "1711": "▁아무리",
  "1712": "아버",
  "1713": "운데",
  "1714": "▁자기는",
  "1715": "▁녹",
  "1716": "식이",
  "1717": "▁사야",
  "1718": "▁많았",
  "1719": "▁인생",
  "1720": "▁거라",
  "1721": "▁바꾸",
  "1722": "▁이랬는데",
  "1723": "▁택시",
  "1724": "▁아니다",
  "1725": "▁위해서",
  "1726": "▁그렇다고",
  "1727": "리지",
  "1728": "▁애들도",
  "1729": "어를",
  "1730": "▁많지",
  "1731": "▁알바를",
  "1732": "▁크리스",
  "1733": "▁엄마한테",
  "1734": "▁특히",
  "1735": "▁저번",
  "1736": "▁되겠다",
  "1737": "▁약속",
  "1738": "들한테",
  "1739": "▁파는",
  "1740": "▁재밌게",
  "1741": "▁쪽에",
  "1742": "▁먹으러",
  "1743": "▁싼",
  "1744": "▁소개",
  "1745": "▁싶지",
  "1746": "▁기억나",
  "1747": "해도",
  "1748": "▁가지구",
  "1749": "▁보는데",
  "1750": "▁덜",
  "1751": "우는",
  "1752": "하네",
  "1753": "▁이까",
  "1754": "만에",
  "1755": "▁전혀",
  "1756": "▁애초에",
  "1757": "▁밑에",
  "1758": "▁이것",
  "1759": "▁롤",
  "1760": "▁피자",
  "1761": "가가",
  "1762": "전에",
  "1763": "▁바꿔",
  "1764": "▁없다고",
  "1765": "▁밤에",
  "1766": "잖아요",
  "1767": "▁운동을",
  "1768": "▁예쁘",
  "1769": "▁내고",
  "1770": "▁C",
  "1771": "▁봐서",
  "1772": "▁그대로",
  "1773": "▁넷",
  "1774": "이래",
  "1775": "▁중간에",
  "1776": "▁거긴",
  "1777": "▁금방",
  "1778": "▁직업",
  "1779": "▁노트",
  "1780": "▁사람들도",
  "1781": "대는",
  "1782": "▁만난",
  "1783": "▁크리스마",
  "1784": "부분",
  "1785": "더라구",
  "1786": "지어",
  "1787": "▁밥을",
  "1788": "▁나머",
  "1789": "▁이름이",
  "1790": "▁고기",
  "1791": "▁대신",
  "1792": "▁정도는",
  "1793": "시간",
  "1794": "▁맡",
  "1795": "▁만든",
  "1796": "▁잘해",
  "1797": "▁그랬지",
  "1798": "▁비슷한",
  "1799": "▁해가지구",
  "1800": "▁해봐",
  "1801": "▁쿠",
  "1802": "▁바뀌",
  "1803": "▁내려가",
  "1804": "▁먹어야",
  "1805": "▁심지어",
  "1806": "여행",
  "1807": "▁그나",
  "1808": "▁일요일",
  "1809": "▁비행기",
  "1810": "▁노력",
  "1811": "▁막상",
  "1812": "▁일어",
  "1813": "▁작년에",
  "1814": "▁알았는데",
  "1815": "▁얘기가",
  "1816": "▁무서워",
  "1817": "▁스무",
  "1818": "▁왕",
  "1819": "▁탄",
  "1820": "▁어쩌",
  "1821": "치고",
  "1822": "▁드는",
  "1823": "▁주제",
  "1824": "▁청소",
  "1825": "▁넘어가",
  "1826": "▁올려",
  "1827": "▁점점",
  "1828": "▁강아지",
  "1829": "▁젊",
  "1830": "비가",
  "1831": "카이",
  "1832": "▁너희",
  "1833": "▁아니니까",
  "1834": "▁셋",
  "1835": "같이",
  "1836": "▁그거에",
  "1837": "▁요즘은",
  "1838": "▁있어가지고",
  "1839": "▁빠져",
  "1840": "하거든",
  "1841": "▁만나는",
  "1842": "하자",
  "1843": "▁그림",
  "1844": "▁기숙사",
  "1845": "상이",
  "1846": "치가",
  "1847": "▁이쁘",
  "1848": "▁있으",
  "1849": "▁가보고",
  "1850": "로는",
  "1851": "▁삼만",
  "1852": "▁그러다",
  "1853": "▁유명한",
  "1854": "▁밖",
  "1855": "▁시간에",
  "1856": "▁먹지",
  "1857": "▁크리스마스",
  "1858": "▁넓",
  "1859": "그램",
  "1860": "무원",
  "1861": "▁봤지",
  "1862": "▁어린",
  "1863": "보단",
  "1864": "▁도와",
  "1865": "▁많아서",
  "1866": "▁쭉",
  "1867": "▁엄마랑",
  "1868": "▁괜찮을",
  "1869": "▁옮",
  "1870": "▁팬",
  "1871": "대를",
  "1872": "▁침",
  "1873": "▁의미",
  "1874": "▁돌아가",
  "1875": "▁머리가",
  "1876": "▁그르",
  "1877": "▁설명",
  "1878": "▁어울",
  "1879": "▁됐는데",
  "1880": "▁염",
  "1881": "▁친한",
  "1882": "▁어떡해",
  "1883": "▁앉아",
  "1884": "▁겁",
  "1885": "▁뻔",
  "1886": "감이",
  "1887": "▁끌",
  "1888": "▁있었거든",
  "1889": "▁일부",
  "1890": "▁전문",
  "1891": "▁피곤",
  "1892": "▁가니까",
  "1893": "▁경우는",
  "1894": "▁그나마",
  "1895": "▁남자애",
  "1896": "▁만드는",
  "1897": "▁매일",
  "1898": "수를",
  "1899": "▁나갈",
  "1900": "▁시간을",
  "1901": "▁얘기하는",
  "1902": "시에",
  "1903": "▁렌",
  "1904": "▁데려",
  "1905": "▁미세",
  "1906": "▁차이",
  "1907": "▁원래는",
  "1908": "▁방법",
  "1909": "▁건물",
  "1910": "▁컨",
  "1911": "와서",
  "1912": "▁그랬던",
  "1913": "거야",
  "1914": "▁나는데",
  "1915": "▁안데",
  "1916": "▁만나고",
  "1917": "▁만나서",
  "1918": "▁롯",
  "1919": "트가",
  "1920": "▁안돼",
  "1921": "▁보이는",
  "1922": "하더라고",
  "1923": "▁라면",
  "1924": "▁이백",
  "1925": "▁패딩",
  "1926": "▁까먹",
  "1927": "▁이모",
  "1928": "▁작은",
  "1929": "▁긴",
  "1930": "▁무섭",
  "1931": "▁잡고",
  "1932": "▁거예요",
  "1933": "▁들어갈",
  "1934": "▁아무도",
  "1935": "▁월요일",
  "1936": "▁짝",
  "1937": "▁잡아",
  "1938": "▁있던",
  "1939": "거리",
  "1940": "▁도움",
  "1941": "▁떡볶",
  "1942": "▁생기",
  "1943": "▁했고",
  "1944": "▁봤거든",
  "1945": "▁배워",
  "1946": "▁순간",
  "1947": "▁들어간",
  "1948": "▁분명",
  "1949": "▁탔",
  "1950": "▁했나",
  "1951": "이거든",
  "1952": "▁대부분",
  "1953": "▁눈이",
  "1954": "하러",
  "1955": "▁롯데",
  "1956": "▁걸어",
  "1957": "▁라는",
  "1958": "▁이사",
  "1959": "▁자연",
  "1960": "스터",
  "1961": "▁찍고",
  "1962": "▁그리구",
  "1963": "스러",
  "1964": "▁평소",
  "1965": "▁남았",
  "1966": "▁쩌",
  "1967": "셨어",
  "1968": "▁찍어",
  "1969": "▁존",
  "1970": "▁디자",
  "1971": "▁자세",
  "1972": "▁콘",
  "1973": "했거든",
  "1974": "▁행복",
  "1975": "라이",
  "1976": "▁날씨",
  "1977": "▁은데",
  "1978": "▁하시",
  "1979": "▁있을까",
  "1980": "▁센",
  "1981": "▁튀",
  "1982": "▁몸이",
  "1983": "▁부담",
  "1984": "▁저도",
  "1985": "기업",
  "1986": "▁키로",
  "1987": "▁활동",
  "1988": "▁이거를",
  "1989": "스를",
  "1990": "▁북",
  "1991": "시아",
  "1992": "이었나",
  "1993": "▁스카이",
  "1994": "▁먹었는데",
  "1995": "▁그거랑",
  "1996": "▁일하는",
  "1997": "▁걸리",
  "1998": "▁올라오",
  "1999": "▁문화",
  "2000": "▁살이",
  "2001": "▁예약",
  "2002": "▁오백",
  "2003": "▁많으니까",
  "2004": "▁이래서",
  "2005": "▁삼백",
  "2006": "▁위험",
  "2007": "▁물어보",
  "2008": "▁익",
  "2009": "이긴",
  "2010": "▁지짜",
  "2011": "▁새로운",
  "2012": "▁구십",
  "2013": "▁책을",
  "2014": "▁충분",
  "2015": "▁하여",
  "2016": "▁한대",
  "2017": "▁게임을",
  "2018": "▁여행을",
  "2019": "▁쇼핑",
  "2020": "▁움",
  "2021": "▁나눠",
  "2022": "져서",
  "2023": "▁귀여",
  "2024": "듯이",
  "2025": "▁베트",
  "2026": "▁얻",
  "2027": "▁들어가는",
  "2028": "▁냈",
  "2029": "▁이쪽",
  "2030": "이면은",
  "2031": "▁냉",
  "2032": "스로",
  "2033": "▁말은",
  "2034": "▁같던데",
  "2035": "▁해줬",
  "2036": "▁그러네",
  "2037": "▁베트남",
  "2038": "▁웃긴",
  "2039": "▁있겠지",
  "2040": "을걸",
  "2041": "▁관심이",
  "2042": "▁모르지",
  "2043": "▁동물",
  "2044": "▁싶고",
  "2045": "▁아이폰",
  "2046": "▁괜찮은데",
  "2047": "▁인정",
  "2048": "리도",
  "2049": "▁누군",
  "2050": "▁하겠지",
  "2051": "▁멋있",
  "2052": "▁저녁에",
  "2053": "▁당장",
  "2054": "▁종류",
  "2055": "▁불러",
  "2056": "▁연예",
  "2057": "이란",
  "2058": "▁확인",
  "2059": "트를",
  "2060": "▁먹자",
  "2061": "▁것처럼",
  "2062": "▁나쁜",
  "2063": "▁자유",
  "2064": "▁이야기",
  "2065": "▁거거든",
  "2066": "▁이해가",
  "2067": "이를",
  "2068": "이션",
  "2069": "▁가잖아",
  "2070": "▁때까지",
  "2071": "▁기회",
  "2072": "▁연락을",
  "2073": "▁잘하는",
  "2074": "▁요즘에는",
  "2075": "▁들을",
  "2076": "▁미세먼",
  "2077": "▁권",
  "2078": "▁칼",
  "2079": "▁걔네가",
  "2080": "▁티비",
  "2081": "▁땡",
  "2082": "▁뚫",
  "2083": "▁있냐",
  "2084": "등학생",
  "2085": "▁그러더라고",
  "2086": "▁P",
  "2087": "▁작업",
  "2088": "▁안에서",
  "2089": "이었는데",
  "2090": "▁희",
  "2091": "볼까",
  "2092": "▁어릴",
  "2093": "▁가봤",
  "2094": "달라고",
  "2095": "더라도",
  "2096": "▁향",
  "2097": "▁화장실",
  "2098": "▁범",
  "2099": "▁인천",
  "2100": "▁갔지",
  "2101": "▁보자",
  "2102": "▁십만",
  "2103": "▁갔잖아",
  "2104": "▁엄마는",
  "2105": "지지",
  "2106": "▁경찰",
  "2107": "▁실제로",
  "2108": "▁아닐까",
  "2109": "▁젤",
  "2110": "▁수술",
  "2111": "▁있게",
  "2112": "▁합정",
  "2113": "▁싶었는데",
  "2114": "▁친구들이",
  "2115": "▁아니었어",
  "2116": "▁훈",
  "2117": "▁없으면",
  "2118": "▁과목",
  "2119": "▁목소",
  "2120": "▁이럴",
  "2121": "▁저거",
  "2122": "▁이제는",
  "2123": "▁적은",
  "2124": "▁중에서",
  "2125": "▁깜짝",
  "2126": "▁치고",
  "2127": "▁얘기하고",
  "2128": "▁찌",
  "2129": "▁거네",
  "2130": "▁움직",
  "2131": "▁데도",
  "2132": "▁미술",
  "2133": "▁있단",
  "2134": "▁취직",
  "2135": "▁모르고",
  "2136": "▁할아버",
  "2137": "▁했으니까",
  "2138": "▁느꼈",
  "2139": "▁등급",
  "2140": "▁괜찮지",
  "2141": "▁모습",
  "2142": "▁오랜",
  "2143": "▁좋게",
  "2144": "▁남아",
  "2145": "▁영화를",
  "2146": "▁옆에서",
  "2147": "▁친구들이랑",
  "2148": "과가",
  "2149": "▁갈까",
  "2150": "▁그양",
  "2151": "▁신촌",
  "2152": "▁몰랐어",
  "2153": "▁좋다고",
  "2154": "▁그거야",
  "2155": "▁지역",
  "2156": "▁엑",
  "2157": "▁것들",
  "2158": "▁역시",
  "2159": "▁월급",
  "2160": "▁인사",
  "2161": "▁나가는",
  "2162": "▁짓",
  "2163": "▁돈도",
  "2164": "▁이틀",
  "2165": "▁없어가지고",
  "2166": "▁번에",
  "2167": "▁취미",
  "2168": "▁같다고",
  "2169": "▁노트북",
  "2170": "▁A",
  "2171": "▁걘",
  "2172": "▁그때도",
  "2173": "▁기분이",
  "2174": "▁있다는",
  "2175": "▁한두",
  "2176": "기에",
  "2177": "▁대로",
  "2178": "점이",
  "2179": "▁말씀",
  "2180": "▁형은",
  "2181": "▁좋았어",
  "2182": "▁척",
  "2183": "▁살았",
  "2184": "▁지가",
  "2185": "▁포기",
  "2186": "▁언니는",
  "2187": "▁뭔데",
  "2188": "▁푸",
  "2189": "▁혜",
  "2190": "▁국가",
  "2191": "▁평일",
  "2192": "▁후회",
  "2193": "▁흥",
  "2194": "▁관리",
  "2195": "▁맥주",
  "2196": "▁들었는데",
  "2197": "▁씻",
  "2198": "▁옷을",
  "2199": "▁피부",
  "2200": "▁어려운",
  "2201": "기만",
  "2202": "▁왠",
  "2203": "▁일도",
  "2204": "▁걔네는",
  "2205": "▁거에요",
  "2206": "▁나오면",
  "2207": "▁지금까지",
  "2208": "든가",
  "2209": "장에",
  "2210": "었다고",
  "2211": "▁물어봤",
  "2212": "▁차이가",
  "2213": "▁들은",
  "2214": "▁등록",
  "2215": "▁세상",
  "2216": "▁현실",
  "2217": "해야지",
  "2218": "▁거래",
  "2219": "식을",
  "2220": "였던",
  "2221": "▁바다",
  "2222": "▁받은",
  "2223": "▁일은",
  "2224": "▁정도면",
  "2225": "▁분이",
  "2226": "▁주인",
  "2227": "▁수밖에",
  "2228": "▁다이어",
  "2229": "▁웹",
  "2230": "▁얘네",
  "2231": "▁주말에",
  "2232": "하시",
  "2233": "▁걸려",
  "2234": "▁나고",
  "2235": "▁뭐였지",
  "2236": "▁교수님이",
  "2237": "▁기계",
  "2238": "▁해줘",
  "2239": "▁하던데",
  "2240": "▁노는",
  "2241": "▁공무원",
  "2242": "▁경우에는",
  "2243": "동안",
  "2244": "▁갔던",
  "2245": "▁그만큼",
  "2246": "▁마시고",
  "2247": "▁않은데",
  "2248": "▁우선",
  "2249": "▁앞에서",
  "2250": "▁봤던",
  "2251": "▁일부러",
  "2252": "▁그러는데",
  "2253": "서는",
  "2254": "▁바쁘",
  "2255": "▁눈치",
  "2256": "▁신발",
  "2257": "▁나만",
  "2258": "▁최대",
  "2259": "▁배우고",
  "2260": "▁기준",
  "2261": "▁인간",
  "2262": "▁중이야",
  "2263": "▁그러다가",
  "2264": "어버",
  "2265": "▁스토",
  "2266": "▁일에",
  "2267": "▁지방",
  "2268": "▁은근",
  "2269": "▁있지만",
  "2270": "▁하여튼",
  "2271": "▁다니면서",
  "2272": "줄게",
  "2273": "▁어머",
  "2274": "▁물어봐",
  "2275": "▁샀어",
  "2276": "▁시즌",
  "2277": "▁고양이",
  "2278": "▁내년에",
  "2279": "▁얘기할",
  "2280": "▁있었잖아",
  "2281": "▁빌려",
  "2282": "▁세계",
  "2283": "▁깊",
  "2284": "▁발표",
  "2285": "▁숙소",
  "2286": "▁유투",
  "2287": "▁전체",
  "2288": "▁출근",
  "2289": "▁보냈",
  "2290": "▁할인",
  "2291": "▁필요한",
  "2292": "▁같더라고",
  "2293": "수록",
  "2294": "▁가만",
  "2295": "▁웬만",
  "2296": "▁마음에",
  "2297": "학금",
  "2298": "▁같지",
  "2299": "▁안되",
  "2300": "▁저희",
  "2301": "▁좋아하고",
  "2302": "▁하냐",
  "2303": "▁요리",
  "2304": "보자",
  "2305": "▁귀엽",
  "2306": "▁사서",
  "2307": "▁싶다고",
  "2308": "▁흐",
  "2309": "드가",
  "2310": "▁이러면",
  "2311": "▁재밌었어",
  "2312": "▁얘기했",
  "2313": "▁재밌을",
  "2314": "▁학교에",
  "2315": "▁그렇다",
  "2316": "▁동생이",
  "2317": "▁연예인",
  "2318": "▁들었",
  "2319": "▁만화",
  "2320": "▁스포",
  "2321": "▁차가",
  "2322": "▁근처에",
  "2323": "▁친구는",
  "2324": "▁일주일에",
  "2325": "자마자",
  "2326": "▁같아서",
  "2327": "▁기사",
  "2328": "▁광고",
  "2329": "▁어색",
  "2330": "▁높은",
  "2331": "▁식당",
  "2332": "▁갈려고",
  "2333": "▁시부터",
  "2334": "▁흔",
  "2335": "▁농구",
  "2336": "▁알겠어",
  "2337": "도가",
  "2338": "▁다양",
  "2339": "▁디자인",
  "2340": "▁있겠다",
  "2341": "▁규",
  "2342": "저께",
  "2343": "▁사업",
  "2344": "▁초반",
  "2345": "▁연락이",
  "2346": "▁하겠다",
  "2347": "▁춤",
  "2348": "▁끄치",
  "2349": "▁도착",
  "2350": "▁하이",
  "2351": "▁탁",
  "2352": "▁경제",
  "2353": "▁넣고",
  "2354": "▁어트",
  "2355": "▁원하는",
  "2356": "▁삶",
  "2357": "▁쎄",
  "2358": "▁아픈",
  "2359": "▁프로그램",
  "2360": "▁할라고",
  "2361": "▁숨",
  "2362": "▁털",
  "2363": "▁다닌",
  "2364": "▁말할",
  "2365": "▁부르",
  "2366": "▁아줌",
  "2367": "▁여자가",
  "2368": "▁능",
  "2369": "▁쟤",
  "2370": "▁부족",
  "2371": "▁나보다",
  "2372": "▁배우는",
  "2373": "▁돼요",
  "2374": "▁맘에",
  "2375": "▁안경",
  "2376": "▁얘는",
  "2377": "▁그런지",
  "2378": "생활",
  "2379": "▁간단",
  "2380": "▁도시",
  "2381": "▁맛집",
  "2382": "▁자전",
  "2383": "▁그니깐",
  "2384": "▁말라고",
  "2385": "▁훈련",
  "2386": "▁정확히",
  "2387": "▁좋아서",
  "2388": "▁개가",
  "2389": "▁거리",
  "2390": "▁과제",
  "2391": "▁모아",
  "2392": "하냐",
  "2393": "▁최고",
  "2394": "▁생각하면",
  "2395": "든데",
  "2396": "려야",
  "2397": "▁합격",
  "2398": "▁봄",
  "2399": "▁서른",
  "2400": "▁쉽게",
  "2401": "▁용돈",
  "2402": "▁겹",
  "2403": "▁증",
  "2404": "▁강의",
  "2405": "▁개를",
  "2406": "였거든",
  "2407": "▁그러게",
  "2408": "▁폭",
  "2409": "▁않지",
  "2410": "▁보험",
  "2411": "▁가봤어",
  "2412": "하나",
  "2413": "▁에어",
  "2414": "▁캐릭",
  "2415": "▁말했",
  "2416": "▁써야",
  "2417": "▁나왔는데",
  "2418": "▁말하면",
  "2419": "▁해주는",
  "2420": "▁히",
  "2421": "만큼",
  "2422": "▁넣어",
  "2423": "▁타는",
  "2424": "▁그때가",
  "2425": "▁액",
  "2426": "▁원이",
  "2427": "▁홈",
  "2428": "▁아줌마",
  "2429": "▁잃",
  "2430": "▁경영",
  "2431": "▁휴가",
  "2432": "에게",
  "2433": "▁김치",
  "2434": "▁동기",
  "2435": "▁어어",
  "2436": "▁여유",
  "2437": "▁떼",
  "2438": "▁똥",
  "2439": "▁과외",
  "2440": "▁싸게",
  "2441": "▁왠지",
  "2442": "▁들어왔",
  "2443": "▁먹는데",
  "2444": "▁사촌",
  "2445": "▁집중",
  "2446": "▁학교를",
  "2447": "▁애들한테",
  "2448": "▁벗",
  "2449": "▁명은",
  "2450": "▁상담",
  "2451": "▁전역",
  "2452": "▁이후로",
  "2453": "▁갈래",
  "2454": "▁싫은",
  "2455": "▁요번에",
  "2456": "▁하나씩",
  "2457": "▁춥",
  "2458": "러워",
  "2459": "▁곱",
  "2460": "▁대학원",
  "2461": "▁관계",
  "2462": "▁사람한테",
  "2463": "▁이어",
  "2464": "▁따라서",
  "2465": "▁하라고",
  "2466": "지로",
  "2467": "▁도서",
  "2468": "▁마셔",
  "2469": "리니까",
  "2470": "▁봤잖아",
  "2471": "향이",
  "2472": "▁오케",
  "2473": "▁가자고",
  "2474": "▁나가고",
  "2475": "마트",
  "2476": "▁목표",
  "2477": "▁그것만",
  "2478": "▁목요일",
  "2479": "▁오빠는",
  "2480": "▁든",
  "2481": "▁잘생",
  "2482": "▁정돈",
  "2483": "▁S",
  "2484": "▁걷",
  "2485": "▁조용",
  "2486": "다는데",
  "2487": "▁좋아하는데",
  "2488": "▁엔",
  "2489": "가고",
  "2490": "들끼리",
  "2491": "▁껴",
  "2492": "▁가끔씩",
  "2493": "▁러",
  "2494": "▁연기",
  "2495": "했다고",
  "2496": "있어",
  "2497": "▁복학",
  "2498": "▁돼가지고",
  "2499": "이터",
  "2500": "▁원인가",
  "2501": "▁학교가",
  "2502": "당히",
  "2503": "▁계산",
  "2504": "▁교통",
  "2505": "▁뒤로",
  "2506": "▁따뜻",
  "2507": "▁만들고",
  "2508": "▁샤",
  "2509": "▁나을",
  "2510": "▁봐봐",
  "2511": "▁당연하지",
  "2512": "▁옛날에는",
  "2513": "났어",
  "2514": "적이",
  "2515": "▁오지",
  "2516": "▁일어나서",
  "2517": "▁친구도",
  "2518": "▁년에",
  "2519": "▁니네",
  "2520": "▁멀리",
  "2521": "▁아쉬",
  "2522": "▁지난",
  "2523": "지니까",
  "2524": "▁꿀",
  "2525": "▁황",
  "2526": "▁어딨",
  "2527": "▁아파트",
  "2528": "▁그때부터",
  "2529": "▁오랜만에",
  "2530": "▁거라서",
  "2531": "▁어려워",
  "2532": "▁영화가",
  "2533": "▁헐",
  "2534": "▁오늘은",
  "2535": "▁충분히",
  "2536": "▁돌아다니",
  "2537": "나는",
  "2538": "네요",
  "2539": "▁누나가",
  "2540": "▁자전거",
  "2541": "▁고생",
  "2542": "▁삼성",
  "2543": "▁애니",
  "2544": "▁충격",
  "2545": "▁편입",
  "2546": "줬어",
  "2547": "▁거짓",
  "2548": "▁검색",
  "2549": "▁번호",
  "2550": "▁부럽",
  "2551": "▁직장",
  "2552": "▁집을",
  "2553": "▁똑같애",
  "2554": "▁오면은",
  "2555": "오는",
  "2556": "▁답답",
  "2557": "▁아깝",
  "2558": "▁있었지",
  "2559": "▁캐릭터",
  "2560": "▁놨",
  "2561": "짜리",
  "2562": "▁혼자서",
  "2563": "▁모르겠고",
  "2564": "▁내는",
  "2565": "▁맞추",
  "2566": "▁없나",
  "2567": "겠구나",
  "2568": "▁맞춰서",
  "2569": "▁예쁜",
  "2570": "▁오후",
  "2571": "▁행동",
  "2572": "▁할라",
  "2573": "▁그땐",
  "2574": "▁다리",
  "2575": "▁편집",
  "2576": "▁가깝",
  "2577": "▁이것도",
  "2578": "▁만큼",
  "2579": "▁쓰레",
  "2580": "▁편하게",
  "2581": "▁넷플",
  "2582": "▁배가",
  "2583": "▁삼천",
  "2584": "▁스케",
  "2585": "▁염색",
  "2586": "▁여름에",
  "2587": "여가지고",
  "2588": "▁놔",
  "2589": "에선",
  "2590": "하진",
  "2591": "▁기대",
  "2592": "▁나간",
  "2593": "▁넘게",
  "2594": "▁배웠",
  "2595": "▁설날",
  "2596": "가주구",
  "2597": "▁가만히",
  "2598": "▁나보고",
  "2599": "▁엄마도",
  "2600": "리아",
  "2601": "었대",
  "2602": "으러",
  "2603": "▁되거든",
  "2604": "▁했으면",
  "2605": "▁랩",
  "2606": "이버",
  "2607": "▁돈은",
  "2608": "▁반에",
  "2609": "▁정리",
  "2610": "▁있는지",
  "2611": "▁선수",
  "2612": "▁웃기",
  "2613": "▁가기로",
  "2614": "▁걔한테",
  "2615": "▁죄",
  "2616": "▁겁나",
  "2617": "▁문자",
  "2618": "▁점수",
  "2619": "▁하나가",
  "2620": "▁T",
  "2621": "▁석",
  "2622": "▁사주",
  "2623": "▁추가",
  "2624": "▁그러잖아",
  "2625": "▁송",
  "2626": "▁간호",
  "2627": "▁날짜",
  "2628": "▁주로",
  "2629": "▁쌍",
  "2630": "▁가방",
  "2631": "▁갖다",
  "2632": "▁계약",
  "2633": "▁그랬나",
  "2634": "▁했다고",
  "2635": "▁엉",
  "2636": "▁생겨",
  "2637": "▁신고",
  "2638": "▁클럽",
  "2639": "▁표현",
  "2640": "▁했더니",
  "2641": "▁던",
  "2642": "▁거나",
  "2643": "▁거다",
  "2644": "▁바꼈",
  "2645": "▁직원",
  "2646": "▁서울대",
  "2647": "▁장학금",
  "2648": "▁짱",
  "2649": "▁빨간",
  "2650": "▁기술",
  "2651": "▁올리",
  "2652": "▁콘서",
  "2653": "▁큰일",
  "2654": "▁보다가",
  "2655": "으니깐",
  "2656": "▁부분이",
  "2657": "▁있어도",
  "2658": "▁땅",
  "2659": "에다",
  "2660": "▁뛰어",
  "2661": "▁화가",
  "2662": "▁그랬거든",
  "2663": "▁기업",
  "2664": "▁어딘",
  "2665": "장에서",
  "2666": "▁먹어도",
  "2667": "관이",
  "2668": "▁비용",
  "2669": "▁해준",
  "2670": "▁거처럼",
  "2671": "▁명이서",
  "2672": "시켜",
  "2673": "▁카메",
  "2674": "▁데리고",
  "2675": "▁일하고",
  "2676": "▁붙어",
  "2677": "▁않았나",
  "2678": "▁백만",
  "2679": "▁죽을",
  "2680": "▁것들이",
  "2681": "▁이따가",
  "2682": "▁경기",
  "2683": "▁정보",
  "2684": "▁말했잖아",
  "2685": "▁눌",
  "2686": "▁가가",
  "2687": "▁남는",
  "2688": "▁년도",
  "2689": "▁어디로",
  "2690": "▁들어가면",
  "2691": "▁거짓말",
  "2692": "▁있던데",
  "2693": "▁있었고",
  "2694": "▁받았어",
  "2695": "▁부모님이",
  "2696": "되고",
  "2697": "▁쉬는",
  "2698": "▁아이까",
  "2699": "대에",
  "2700": "▁지고",
  "2701": "▁외국인",
  "2702": "겼어",
  "2703": "▁학과",
  "2704": "▁한다는",
  "2705": "▁쌀",
  "2706": "▁햄",
  "2707": "▁수준",
  "2708": "▁남자가",
  "2709": "▁밖에서",
  "2710": "▁분명히",
  "2711": "▁성격이",
  "2712": "▁개인적으로",
  "2713": "▁미래",
  "2714": "▁했대",
  "2715": "▁떨어졌",
  "2716": "▁자기도",
  "2717": "▁재미가",
  "2718": "▁힘들지",
  "2719": "▁뒷",
  "2720": "▁뮤",
  "2721": "▁차를",
  "2722": "▁키우",
  "2723": "▁사진을",
  "2724": "▁아쉽",
  "2725": "▁어플",
  "2726": "▁파티",
  "2727": "까지만",
  "2728": "▁곧",
  "2729": "▁사용",
  "2730": "▁성공",
  "2731": "▁수요일",
  "2732": "▁해주고",
  "2733": "▁연극",
  "2734": "▁나머지",
  "2735": "▁떡볶이",
  "2736": "▁사람들한테",
  "2737": "▁섞",
  "2738": "▁독일",
  "2739": "▁좋긴",
  "2740": "▁퍼센",
  "2741": "었으니까",
  "2742": "다매",
  "2743": "▁공간",
  "2744": "▁글쎄",
  "2745": "▁무료",
  "2746": "▁상대",
  "2747": "▁싶긴",
  "2748": "▁아우",
  "2749": "▁마지막에",
  "2750": "▁날에",
  "2751": "였잖아",
  "2752": "▁아니냐",
  "2753": "▁준비를",
  "2754": "▁하나는",
  "2755": "겠냐",
  "2756": "▁됐지",
  "2757": "▁배운",
  "2758": "▁시골",
  "2759": "▁꽃",
  "2760": "▁낳",
  "2761": "달라",
  "2762": "▁할려",
  "2763": "▁내용이",
  "2764": "▁무서운",
  "2765": "▁오래됐",
  "2766": "▁찬",
  "2767": "있고",
  "2768": "▁결과",
  "2769": "▁남은",
  "2770": "▁해결",
  "2771": "▁봐야지",
  "2772": "▁본인",
  "2773": "셨는데",
  "2774": "▁모르니까",
  "2775": "▁해줄",
  "2776": "▁필요가",
  "2777": "기보다는",
  "2778": "▁갈아",
  "2779": "▁보네",
  "2780": "▁영국",
  "2781": "▁나오잖아",
  "2782": "▁아니라고",
  "2783": "스는",
  "2784": "▁소주",
  "2785": "▁넷플릭",
  "2786": "▁처음부터",
  "2787": "▁구경",
  "2788": "▁때만",
  "2789": "▁최저",
  "2790": "▁피아",
  "2791": "스럽게",
  "2792": "▁만에",
  "2793": "▁사귀",
  "2794": "▁사라",
  "2795": "▁꽂",
  "2796": "▁웃겨",
  "2797": "▁집은",
  "2798": "▁프리",
  "2799": "▁돈으로",
  "2800": "▁얼굴이",
  "2801": "▁이것저",
  "2802": "▁캠",
  "2803": "촬영",
  "2804": "▁길게",
  "2805": "▁유치",
  "2806": "▁조심",
  "2807": "▁질문",
  "2808": "상을",
  "2809": "▁많을",
  "2810": "▁못해",
  "2811": "▁어른",
  "2812": "▁호선",
  "2813": "▁영화관",
  "2814": "▁전부",
  "2815": "▁분위기",
  "2816": "▁아니지만",
  "2817": "▁이것저것",
  "2818": "▁모르겠지만",
  "2819": "▁닫",
  "2820": "▁핫",
  "2821": "장님",
  "2822": "주면",
  "2823": "▁쉽지",
  "2824": "▁아빠는",
  "2825": "▁최대한",
  "2826": "▁미세먼지",
  "2827": "▁이래가지고",
  "2828": "▁쏘",
  "2829": "▁이르",
  "2830": "▁곡",
  "2831": "원도",
  "2832": "▁메뉴",
  "2833": "▁수시",
  "2834": "▁도서관",
  "2835": "▁하나만",
  "2836": "▁루",
  "2837": "우니까",
  "2838": "▁화요일",
  "2839": "▁흘",
  "2840": "▁쉬고",
  "2841": "▁이용",
  "2842": "▁전날",
  "2843": "져가지고",
  "2844": "이드",
  "2845": "경이",
  "2846": "사는",
  "2847": "▁나면",
  "2848": "▁난다",
  "2849": "▁아르",
  "2850": "▁폰",
  "2851": "▁야구",
  "2852": "▁하도",
  "2853": "이브",
  "2854": "▁빡세",
  "2855": "▁시급",
  "2856": "▁않잖아",
  "2857": "구요",
  "2858": "▁사만",
  "2859": "▁겨울에",
  "2860": "▁된다는",
  "2861": "▁되더라고",
  "2862": "▁술집",
  "2863": "▁없대",
  "2864": "▁촬영",
  "2865": "▁요새는",
  "2866": "▁풍",
  "2867": "▁계란",
  "2868": "▁웹툰",
  "2869": "▁해요",
  "2870": "▁가까운",
  "2871": "▁상황이",
  "2872": "▁싹",
  "2873": "나게",
  "2874": "▁원씩",
  "2875": "▁느낀",
  "2876": "▁자동",
  "2877": "▁주문",
  "2878": "▁네이버",
  "2879": "▁슈",
  "2880": "▁근육",
  "2881": "▁데로",
  "2882": "으로는",
  "2883": "▁끝까지",
  "2884": "었단",
  "2885": "▁나은",
  "2886": "▁배울",
  "2887": "▁출발",
  "2888": "▁하는지",
  "2889": "▁오버",
  "2890": "▁해봤어",
  "2891": "▁아빠한테",
  "2892": "▁좋아하지",
  "2893": "두고",
  "2894": "심이",
  "2895": "▁입시",
  "2896": "▁전자",
  "2897": "▁가격이",
  "2898": "▁소리야",
  "2899": "▁피아노",
  "2900": "▁엠",
  "2901": "금이",
  "2902": "▁반대",
  "2903": "▁불안",
  "2904": "▁쓰면",
  "2905": "렸는데",
  "2906": "▁새벽에",
  "2907": "▁흰",
  "2908": "리카",
  "2909": "▁놀아",
  "2910": "▁티켓",
  "2911": "하기도",
  "2912": "▁만한",
  "2913": "▁봉사",
  "2914": "▁나오지",
  "2915": "▁습",
  "2916": "가서",
  "2917": "▁쌤이",
  "2918": "야겠다",
  "2919": "▁시험을",
  "2920": "러스",
  "2921": "캐슬",
  "2922": "화가",
  "2923": "▁끼고",
  "2924": "▁방금",
  "2925": "▁되겠지",
  "2926": "▁시간도",
  "2927": "카오",
  "2928": "▁놀랬",
  "2929": "▁아래",
  "2930": "하거나",
  "2931": "▁카메라",
  "2932": "▁사람들이랑",
  "2933": "▁완전히",
  "2934": "▁덴",
  "2935": "▁삐",
  "2936": "▁뽑아",
  "2937": "▁오사",
  "2938": "▁항공",
  "2939": "▁괜찮다",
  "2940": "▁되겠네",
  "2941": "▁대구",
  "2942": "▁모자",
  "2943": "▁사면",
  "2944": "▁추워",
  "2945": "랐어",
  "2946": "▁계절",
  "2947": "▁불쌍",
  "2948": "▁야간",
  "2949": "▁에스",
  "2950": "▁젊은",
  "2951": "▁배고파",
  "2952": "▁전화를",
  "2953": "▁이러면은",
  "2954": "▁연결",
  "2955": "▁말해서",
  "2956": "▁될까",
  "2957": "▁사실은",
  "2958": "▁없어요",
  "2959": "▁유투브",
  "2960": "▁평소에",
  "2961": "▁뉴스",
  "2962": "▁하러",
  "2963": "▁한참",
  "2964": "▁해본",
  "2965": "이었던",
  "2966": "▁만나면",
  "2967": "▁왔잖아",
  "2968": "▁들어가고",
  "2969": "▁모르는데",
  "2970": "셔서",
  "2971": "일이",
  "2972": "▁남편",
  "2973": "▁누워",
  "2974": "▁언젠",
  "2975": "▁이과",
  "2976": "▁입을",
  "2977": "▁달라고",
  "2978": "▁앉아서",
  "2979": "▁대해",
  "2980": "▁월달",
  "2981": "▁받아서",
  "2982": "▁읽고",
  "2983": "▁거였어",
  "2984": "▁많았어",
  "2985": "▁콘서트",
  "2986": "▁하시는",
  "2987": "려가지고",
  "2988": "▁얘기도",
  "2989": "▁교양",
  "2990": "▁그이",
  "2991": "▁맞나",
  "2992": "▁빠르",
  "2993": "▁싸우",
  "2994": "▁일케",
  "2995": "▁주인공",
  "2996": "▁다이어트",
  "2997": "물이",
  "2998": "수는",
  "2999": "▁시켰",
  "3000": "▁어딜",
  "3001": "▁열두",
  "3002": "▁정시",
  "3003": "▁노래방",
  "3004": "▁아버지",
  "3005": "▁해갖고",
  "3006": "▁공부하고",
  "3007": "▁좋아해서",
  "3008": "▁할아버지",
  "3009": "쳐서",
  "3010": "▁군데",
  "3011": "▁이쁜",
  "3012": "보면은",
  "3013": "▁대체",
  "3014": "▁나니까",
  "3015": "▁맞아요",
  "3016": "▁아빠랑",
  "3017": "▁나오는데",
  "3018": "▁엘",
  "3019": "느라",
  "3020": "이서",
  "3021": "화점",
  "3022": "▁녹음",
  "3023": "▁렌즈",
  "3024": "▁맞고",
  "3025": "▁문과",
  "3026": "▁오사카",
  "3027": "가꼬",
  "3028": "고사",
  "3029": "자리",
  "3030": "피스",
  "3031": "▁무시",
  "3032": "▁할지",
  "3033": "▁갔거든",
  "3034": "▁끝나면",
  "3035": "▁있잖아요",
  "3036": "라인",
  "3037": "비를",
  "3038": "▁되냐",
  "3039": "▁완벽",
  "3040": "▁원을",
  "3041": "▁서울에",
  "3042": "▁했었거든",
  "3043": "▁먹어서",
  "3044": "▁페이스",
  "3045": "해가지구",
  "3046": "▁거기에서",
  "3047": "▁메이",
  "3048": "▁미용",
  "3049": "▁연말",
  "3050": "▁찍는",
  "3051": "▁특별",
  "3052": "▁둘이서",
  "3053": "▁쳤",
  "3054": "하대",
  "3055": "할까",
  "3056": "▁들면",
  "3057": "▁어우",
  "3058": "▁치는",
  "3059": "▁팔아",
  "3060": "▁피시",
  "3061": "▁귀찮아",
  "3062": "▁아이디",
  "3063": "치를",
  "3064": "▁배그",
  "3065": "▁음료",
  "3066": "▁해볼",
  "3067": "▁대학생",
  "3068": "▁지나가",
  "3069": "▁이번에는",
  "3070": "▁댓",
  "3071": "▁폐",
  "3072": "부가",
  "3073": "주로",
  "3074": "▁경쟁",
  "3075": "▁근무",
  "3076": "▁되긴",
  "3077": "▁손님",
  "3078": "▁알잖아",
  "3079": "고기",
  "3080": "받고",
  "3081": "▁곱창",
  "3082": "▁마라",
  "3083": "▁말라",
  "3084": "▁여성",
  "3085": "하라고",
  "3086": "▁생겼어",
  "3087": "▁낼",
  "3088": "▁사무",
  "3089": "▁자는",
  "3090": "▁거면은",
  "3091": "▁자기네",
  "3092": "▁없었는데",
  "3093": "▁스카이캐슬",
  "3094": "▁빈",
  "3095": "▁찜",
  "3096": "거지",
  "3097": "▁모임",
  "3098": "▁읽어",
  "3099": "▁언니랑",
  "3100": "▁대답",
  "3101": "▁얘긴",
  "3102": "▁프랑",
  "3103": "▁없거든",
  "3104": "▁걸린",
  "3105": "▁끝난",
  "3106": "▁뽑는",
  "3107": "▁없네",
  "3108": "▁최소",
  "3109": "▁같아요",
  "3110": "▁대학을",
  "3111": "▁오라고",
  "3112": "▁먹으니까",
  "3113": "장은",
  "3114": "▁대만",
  "3115": "▁아르바",
  "3116": "▁케이스",
  "3117": "▁그쪽으로",
  "3118": "▁포함",
  "3119": "▁굴",
  "3120": "▁홀",
  "3121": "▁나아",
  "3122": "▁났어",
  "3123": "▁사건",
  "3124": "▁스페",
  "3125": "▁쓰지",
  "3126": "▁팔천",
  "3127": "▁예뻐",
  "3128": "▁스스로",
  "3129": "▁아는데",
  "3130": "▁생각했는데",
  "3131": "어는",
  "3132": "▁얘기한",
  "3133": "▁모르겠네",
  "3134": "▁신기하다",
  "3135": "나서",
  "3136": "▁만족",
  "3137": "▁애는",
  "3138": "▁어제도",
  "3139": "▁했었잖아",
  "3140": "▁널",
  "3141": "볶음",
  "3142": "진이",
  "3143": "▁의사",
  "3144": "▁적응",
  "3145": "식으로",
  "3146": "▁거보다",
  "3147": "▁않았냐",
  "3148": "▁저렇게",
  "3149": "▁않았는데",
  "3150": "▁롱",
  "3151": "▁하겠어",
  "3152": "▁싫어하는",
  "3153": "▁벽",
  "3154": "금을",
  "3155": "▁TV",
  "3156": "▁댓글",
  "3157": "▁쓰리",
  "3158": "▁브랜드",
  "3159": "▁언니도",
  "3160": "주가",
  "3161": "▁가본",
  "3162": "▁고모",
  "3163": "▁심심",
  "3164": "▁싶기도",
  "3165": "▁아이가",
  "3166": "▁끝내",
  "3167": "▁홍콩",
  "3168": "이었거든",
  "3169": "했고",
  "3170": "▁쪽은",
  "3171": "▁테이",
  "3172": "▁있구나",
  "3173": "▁공부하는",
  "3174": "▁아르바이트",
  "3175": "▁뜻",
  "3176": "성을",
  "3177": "▁틀어",
  "3178": "▁싶었어",
  "3179": "▁해놓고",
  "3180": "▁물어보고",
  "3181": "▁웨",
  "3182": "▁헌",
  "3183": "대도",
  "3184": "형이",
  "3185": "▁기름",
  "3186": "▁분야",
  "3187": "▁B",
  "3188": "▁단톡",
  "3189": "▁많다",
  "3190": "▁심해",
  "3191": "▁본인이",
  "3192": "▁이러는데",
  "3193": "▁눈에",
  "3194": "▁체육",
  "3195": "▁들어야",
  "3196": "▁사장님",
  "3197": "▁덕",
  "3198": "구가",
  "3199": "▁들어와",
  "3200": "▁졸업식",
  "3201": "▁퍼센트",
  "3202": "▁했지만",
  "3203": "▁말고는",
  "3204": "▁어트게",
  "3205": "▁영화는",
  "3206": "▁톡",
  "3207": "없이",
  "3208": "▁감독",
  "3209": "▁내야",
  "3210": "▁멀어",
  "3211": "▁우유",
  "3212": "▁이때",
  "3213": "▁관련된",
  "3214": "▁문제는",
  "3215": "▁아니까",
  "3216": "▁낸",
  "3217": "▁앤",
  "3218": "▁공항",
  "3219": "▁쉬운",
  "3220": "할려고",
  "3221": "▁힘들고",
  "3222": "▁생각에는",
  "3223": "▁나와가지고",
  "3224": "▁관광",
  "3225": "▁난리",
  "3226": "▁바꿀",
  "3227": "▁쪽이",
  "3228": "▁누구랑",
  "3229": "▁스포츠",
  "3230": "한텐",
  "3231": "▁아유",
  "3232": "장도",
  "3233": "▁동영",
  "3234": "▁볼까",
  "3235": "▁타임",
  "3236": "▁떨어져",
  "3237": "▁쓰레기",
  "3238": "▁얘기는",
  "3239": "▁일어났",
  "3240": "▁사람이랑",
  "3241": "▁게네",
  "3242": "▁봤다",
  "3243": "▁키워",
  "3244": "▁보니깐",
  "3245": "▁많더라고",
  "3246": "▁웬만하면",
  "3247": "▁좋아하잖아",
  "3248": "▁썼어",
  "3249": "▁특이",
  "3250": "▁피시방",
  "3251": "▁졸업하고",
  "3252": "려나",
  "3253": "히는",
  "3254": "▁비교",
  "3255": "▁원에",
  "3256": "▁작품",
  "3257": "▁하겠",
  "3258": "▁수업을",
  "3259": "▁멍",
  "3260": "▁셔",
  "3261": "버거",
  "3262": "▁소설",
  "3263": "▁수는",
  "3264": "▁연구",
  "3265": "▁한명",
  "3266": "▁같거든",
  "3267": "▁말하고",
  "3268": "▁쩌번에",
  "3269": "▁갔었는데",
  "3270": "▁매운",
  "3271": "▁스터",
  "3272": "▁있음",
  "3273": "▁체크",
  "3274": "▁했단",
  "3275": "▁한국에서",
  "3276": "▁펜",
  "3277": "▁발전",
  "3278": "▁벌어",
  "3279": "▁한창",
  "3280": "▁거구나",
  "3281": "▁그래요",
  "3282": "▁도움이",
  "3283": "▁들어온",
  "3284": "▁없었던",
  "3285": "▁낙",
  "3286": "았던",
  "3287": "▁갈라",
  "3288": "▁감자",
  "3289": "▁거냐",
  "3290": "▁과일",
  "3291": "▁역할",
  "3292": "▁치즈",
  "3293": "▁편한",
  "3294": "메이션",
  "3295": "▁그분이",
  "3296": "▁없더라고",
  "3297": "▁나두",
  "3298": "▁라인",
  "3299": "▁입는",
  "3300": "▁말이지",
  "3301": "▁맛있었어",
  "3302": "드를",
  "3303": "해주",
  "3304": "▁돌려",
  "3305": "▁오른",
  "3306": "▁주면",
  "3307": "▁초밥",
  "3308": "▁하거나",
  "3309": "▁몰랐는데",
  "3310": "▁해봤는데",
  "3311": "봐서",
  "3312": "제를",
  "3313": "▁반응",
  "3314": "▁있네",
  "3315": "▁편해",
  "3316": "▁하던",
  "3317": "지잖아",
  "3318": "▁해봐야",
  "3319": "▁넷플릭스",
  "3320": "▁만들어서",
  "3321": "▁L",
  "3322": "▁개념",
  "3323": "▁곳이",
  "3324": "▁대표",
  "3325": "▁대회",
  "3326": "▁못하",
  "3327": "▁바빠",
  "3328": "▁분에",
  "3329": "▁있기",
  "3330": "▁하셨",
  "3331": "▁이랬더니",
  "3332": "▁사천",
  "3333": "▁유학",
  "3334": "▁한단",
  "3335": "▁여기는",
  "3336": "▁얘기하",
  "3337": "▁쪽에서",
  "3338": "▁카카오",
  "3339": "▁윤",
  "3340": "느냐",
  "3341": "다면",
  "3342": "했나",
  "3343": "▁PC",
  "3344": "▁국내",
  "3345": "▁너의",
  "3346": "▁맛없",
  "3347": "▁물건",
  "3348": "▁퇴근",
  "3349": "▁결혼을",
  "3350": "▁알아보고",
  "3351": "어로",
  "3352": "정도",
  "3353": "▁과학",
  "3354": "▁얼만",
  "3355": "지면은",
  "3356": "▁받아야",
  "3357": "▁M",
  "3358": "▁핑",
  "3359": "▁다운",
  "3360": "▁마이",
  "3361": "▁번은",
  "3362": "▁컵",
  "3363": "▁꾸준",
  "3364": "▁수원",
  "3365": "▁중고",
  "3366": "▁줘야",
  "3367": "▁하네",
  "3368": "▁거기다",
  "3369": "▁말에",
  "3370": "▁면허",
  "3371": "▁찍은",
  "3372": "▁떨어진",
  "3373": "▁스터디",
  "3374": "▁켜",
  "3375": "한대",
  "3376": "▁검사",
  "3377": "▁독서",
  "3378": "▁보라",
  "3379": "▁뭐냐면",
  "3380": "▁보잖아",
  "3381": "▁학원을",
  "3382": "력을",
  "3383": "▁기능",
  "3384": "▁나중",
  "3385": "▁높아",
  "3386": "▁입학",
  "3387": "▁집안",
  "3388": "▁거기를",
  "3389": "▁궁금해",
  "3390": "▁생각할",
  "3391": "▁어디야",
  "3392": "▁멘",
  "3393": "▁족",
  "3394": "찌개",
  "3395": "▁인까",
  "3396": "▁나오니까",
  "3397": "▁각자",
  "3398": "▁거만",
  "3399": "▁두고",
  "3400": "▁매니",
  "3401": "▁학교는",
  "3402": "▁애니메이션",
  "3403": "돼서",
  "3404": "머리",
  "3405": "▁키가",
  "3406": "▁힘드",
  "3407": "▁경우가",
  "3408": "▁아빠도",
  "3409": "▁여기가",
  "3410": "▁이랬어",
  "3411": "▁값",
  "3412": "▁가을",
  "3413": "▁몸에",
  "3414": "▁타이",
  "3415": "▁형도",
  "3416": "▁아직은",
  "3417": "▁샀는데",
  "3418": "▁이상해",
  "3419": "▁마리",
  "3420": "▁해놨",
  "3421": "▁먹잖아",
  "3422": "▁자리가",
  "3423": "▁통해서",
  "3424": "▁프랑스",
  "3425": "▁날이",
  "3426": "▁마실",
  "3427": "▁유행",
  "3428": "합니다",
  "3429": "▁아니에요",
  "3430": "▁아직까지",
  "3431": "▁어떡하지",
  "3432": "계가",
  "3433": "▁가라",
  "3434": "▁개봉",
  "3435": "▁공익",
  "3436": "▁군인",
  "3437": "▁깔끔",
  "3438": "▁수강",
  "3439": "▁장면",
  "3440": "▁지도",
  "3441": "▁진행",
  "3442": "▁걱정이",
  "3443": "▁압",
  "3444": "▁나네",
  "3445": "▁데를",
  "3446": "▁으응",
  "3447": "▁페북",
  "3448": "▁회사에서",
  "3449": "▁싱",
  "3450": "가를",
  "3451": "기로는",
  "3452": "▁런",
  "3453": "실에",
  "3454": "에만",
  "3455": "▁몰르",
  "3456": "▁어깨",
  "3457": "▁주위",
  "3458": "▁영어를",
  "3459": "▁오니까",
  "3460": "▁이십만",
  "3461": "▁테니까",
  "3462": "▁고등학생",
  "3463": "▁끊어",
  "3464": "▁모른",
  "3465": "▁배달",
  "3466": "▁서비",
  "3467": "▁이뻐",
  "3468": "▁먹었지",
  "3469": "랄까",
  "3470": "▁와이",
  "3471": "려면은",
  "3472": "▁배고프",
  "3473": "▁오케이",
  "3474": "▁생각하는데",
  "3475": "▁D",
  "3476": "이기",
  "3477": "▁예술",
  "3478": "▁호주",
  "3479": "도록",
  "3480": "▁내내",
  "3481": "▁왔을",
  "3482": "▁풀어",
  "3483": "▁백화점",
  "3484": "신이",
  "3485": "▁사과",
  "3486": "▁육만",
  "3487": "▁일로",
  "3488": "▁추억",
  "3489": "▁p",
  "3490": "디오",
  "3491": "▁버는",
  "3492": "▁열한",
  "3493": "▁제목",
  "3494": "▁사이즈",
  "3495": "▁전에는",
  "3496": "별로",
  "3497": "원을",
  "3498": "카롱",
  "3499": "하신",
  "3500": "▁나지",
  "3501": "▁당일",
  "3502": "▁바꿨",
  "3503": "▁실습",
  "3504": "▁월세",
  "3505": "▁오버워",
  "3506": "▁한국인",
  "3507": "▁헬스장",
  "3508": "▁그러던데",
  "3509": "▁사람들을",
  "3510": "스도",
  "3511": "▁거죠",
  "3512": "▁맞을",
  "3513": "▁없었",
  "3514": "▁점이",
  "3515": "▁죽는",
  "3516": "▁쳐다",
  "3517": "가주고",
  "3518": "▁형이랑",
  "3519": "▁화장품",
  "3520": "▁분위기가",
  "3521": "▁그렇게까지",
  "3522": "분이",
  "3523": "시키",
  "3524": "▁알게",
  "3525": "▁익숙",
  "3526": "▁자식",
  "3527": "▁경우도",
  "3528": "▁우리한테",
  "3529": "▁콜",
  "3530": "쪽에",
  "3531": "▁맞네",
  "3532": "▁해야겠다",
  "3533": "해요",
  "3534": "▁국어",
  "3535": "▁보드",
  "3536": "▁팔고",
  "3537": "리잖아",
  "3538": "▁이상하게",
  "3539": "방에",
  "3540": "▁생각한",
  "3541": "▁이르케",
  "3542": "▁페이스북",
  "3543": "▁되어",
  "3544": "▁시쯤",
  "3545": "▁않아서",
  "3546": "▁우리랑",
  "3547": "▁구백",
  "3548": "▁모양",
  "3549": "▁바지",
  "3550": "▁인기",
  "3551": "▁것보다",
  "3552": "▁기회가",
  "3553": "▁못하고",
  "3554": "▁스키장",
  "3555": "▁결정",
  "3556": "▁안타",
  "3557": "▁일할",
  "3558": "▁입어",
  "3559": "▁흥미",
  "3560": "▁가르쳐",
  "3561": "▁오빠랑",
  "3562": "▁서울에서",
  "3563": "가락",
  "3564": "주의",
  "3565": "▁논술",
  "3566": "기에는",
  "3567": "▁걸어가",
  "3568": "러운",
  "3569": "봤자",
  "3570": "▁걔를",
  "3571": "▁기차",
  "3572": "▁당황",
  "3573": "▁따고",
  "3574": "▁바닥",
  "3575": "대에서",
  "3576": "▁추천해",
  "3577": "지컬",
  "3578": "▁예비",
  "3579": "▁온천",
  "3580": "▁정치",
  "3581": "▁포장",
  "3582": "▁할래",
  "3583": "▁공부할",
  "3584": "▁정해져",
  "3585": "▁한국에",
  "3586": "▁예전에는",
  "3587": "였고",
  "3588": "제가",
  "3589": "▁단체",
  "3590": "▁스파",
  "3591": "▁싫다",
  "3592": "▁애를",
  "3593": "▁운영",
  "3594": "▁평생",
  "3595": "▁싶으면",
  "3596": "▁그렇잖아",
  "3597": "▁친구한테",
  "3598": "▁힘들었어",
  "3599": "감을",
  "3600": "▁감사",
  "3601": "▁시리",
  "3602": "▁시장",
  "3603": "▁저런",
  "3604": "▁가면서",
  "3605": "▁파스타",
  "3606": "▁전시",
  "3607": "▁시간은",
  "3608": "▁너에",
  "3609": "▁타면",
  "3610": "▁하라",
  "3611": "▁싫어해",
  "3612": "▁물어봤어",
  "3613": "▁가정",
  "3614": "▁나에",
  "3615": "▁년을",
  "3616": "▁환경",
  "3617": "▁게임이",
  "3618": "▁먹었잖아",
  "3619": "았지",
  "3620": "▁강릉",
  "3621": "▁시끄",
  "3622": "▁취소",
  "3623": "▁행사",
  "3624": "▁들으면",
  "3625": "▁잘하고",
  "3626": "▁우리끼리",
  "3627": "연이",
  "3628": "▁사백",
  "3629": "▁인도",
  "3630": "▁전기",
  "3631": "▁주지",
  "3632": "▁노래를",
  "3633": "▁느끼는",
  "3634": "▁목소리",
  "3635": "▁좋았던",
  "3636": "이었잖아",
  "3637": "▁섬",
  "3638": "마는",
  "3639": "시피",
  "3640": "우스",
  "3641": "▁간에",
  "3642": "▁꺼내",
  "3643": "▁치면",
  "3644": "▁하구",
  "3645": "▁맛있게",
  "3646": "▁보여주",
  "3647": "▁교환",
  "3648": "▁그케",
  "3649": "▁날은",
  "3650": "▁담임",
  "3651": "▁도로",
  "3652": "▁마찬",
  "3653": "▁모으",
  "3654": "▁바껴",
  "3655": "▁보게",
  "3656": "▁잉",
  "3657": "률이",
  "3658": "▁돼지",
  "3659": "▁은행",
  "3660": "▁다르지",
  "3661": "▁좋잖아",
  "3662": "▁됐다",
  "3663": "▁마인",
  "3664": "▁방에",
  "3665": "▁실패",
  "3666": "▁의외",
  "3667": "▁짜리",
  "3668": "▁짧게",
  "3669": "이었지",
  "3670": "줬는데",
  "3671": "▁귀여워",
  "3672": "▁되는지",
  "3673": "▁맞는데",
  "3674": "▁상관이",
  "3675": "▁스페인",
  "3676": "▁어저께",
  "3677": "▁학생회",
  "3678": "▁햄버거",
  "3679": "▁스타일이",
  "3680": "화를",
  "3681": "부터는",
  "3682": "▁냄새가",
  "3683": "▁K",
  "3684": "서가",
  "3685": "소리",
  "3686": "▁계시",
  "3687": "▁옷이",
  "3688": "▁이태",
  "3689": "하시는",
  "3690": "한다는",
  "3691": "더라구요",
  "3692": "▁군대에서",
  "3693": "▁을",
  "3694": "▁둘째",
  "3695": "▁때려",
  "3696": "▁심리",
  "3697": "▁심한",
  "3698": "▁아쿠",
  "3699": "▁오픈",
  "3700": "▁왜케",
  "3701": "▁현대",
  "3702": "▁비해서",
  "3703": "▁음식을",
  "3704": "▁있었나",
  "3705": "▁빠른",
  "3706": "▁빠지",
  "3707": "▁줬어",
  "3708": "하지만",
  "3709": "▁사는데",
  "3710": "▁상관없어",
  "3711": "▁괴",
  "3712": "▁뿐",
  "3713": "리어",
  "3714": "▁빠졌",
  "3715": "▁싶을",
  "3716": "리면은",
  "3717": "▁그래야지",
  "3718": "▁탕",
  "3719": "대체",
  "3720": "이로",
  "3721": "자를",
  "3722": "▁간대",
  "3723": "▁날라",
  "3724": "▁붙여",
  "3725": "▁애도",
  "3726": "▁갈라고",
  "3727": "▁일본어",
  "3728": "▁했다가",
  "3729": "▁하드라고",
  "3730": "들에",
  "3731": "하더라",
  "3732": "▁다녀야",
  "3733": "▁도대체",
  "3734": "▁마카롱",
  "3735": "▁사이에",
  "3736": "▁않는데",
  "3737": "▁결국에는",
  "3738": "게요",
  "3739": "수도",
  "3740": "▁다를",
  "3741": "▁벌고",
  "3742": "▁유니",
  "3743": "▁장소",
  "3744": "▁중앙",
  "3745": "으라고",
  "3746": "▁일본은",
  "3747": "▁키우고",
  "3748": "▁느낌이야",
  "3749": "도를",
  "3750": "워야",
  "3751": "자는",
  "3752": "▁검은",
  "3753": "▁돈까",
  "3754": "▁상처",
  "3755": "▁설마",
  "3756": "▁신입",
  "3757": "▁왔지",
  "3758": "▁있구",
  "3759": "실에서",
  "3760": "▁그이까",
  "3761": "▁별로야",
  "3762": "▁적당히",
  "3763": "▁정확하게",
  "3764": "▁끌고",
  "3765": "▁아들",
  "3766": "▁책임",
  "3767": "했었어",
  "3768": "▁군대를",
  "3769": "▁기억에",
  "3770": "▁아이돌",
  "3771": "▁많아가지고",
  "3772": "▁우울",
  "3773": "▁태국",
  "3774": "▁꾸준히",
  "3775": "▁다니면",
  "3776": "▁못하는",
  "3777": "▁미안해",
  "3778": "▁생각나",
  "3779": "▁오늘도",
  "3780": "▁이해를",
  "3781": "▁하나에",
  "3782": "▁놈",
  "3783": "▁거란",
  "3784": "▁마블",
  "3785": "▁인턴",
  "3786": "왔어",
  "3787": "했네",
  "3788": "▁가진",
  "3789": "▁마셨",
  "3790": "▁자랑",
  "3791": "▁잤어",
  "3792": "▁재료",
  "3793": "▁팔만",
  "3794": "하기가",
  "3795": "▁마스크",
  "3796": "▁사장님이",
  "3797": "▁깐",
  "3798": "거운",
  "3799": "려는",
  "3800": "서를",
  "3801": "지에",
  "3802": "집이",
  "3803": "▁비밀",
  "3804": "▁코트",
  "3805": "▁매니저",
  "3806": "▁먹었던",
  "3807": "▁소리가",
  "3808": "▁신기한",
  "3809": "▁찾아서",
  "3810": "▁아아",
  "3811": "▁어이",
  "3812": "▁지켜",
  "3813": "▁얘기하면",
  "3814": "▁생각해보니까",
  "3815": "미안",
  "3816": "▁레벨",
  "3817": "▁안정",
  "3818": "▁적도",
  "3819": "▁칠천",
  "3820": "▁궁금한",
  "3821": "▁보이고",
  "3822": "▁아쿠아",
  "3823": "▁오빠도",
  "3824": "▁힘들다",
  "3825": "했으니까",
  "3826": "▁어떻게든",
  "3827": "▁징",
  "3828": "▁개씩",
  "3829": "▁잠이",
  "3830": "하겠다",
  "3831": "▁그렇네",
  "3832": "▁먹으면서",
  "3833": "▁준비하고",
  "3834": "▁자연스럽게",
  "3835": "▁나무",
  "3836": "▁어찌",
  "3837": "▁크고",
  "3838": "석이",
  "3839": "전을",
  "3840": "▁심각",
  "3841": "▁올린",
  "3842": "▁느낌으로",
  "3843": "▁초등학생",
  "3844": "구만",
  "3845": "▁마주",
  "3846": "▁볼링",
  "3847": "▁커플",
  "3848": "▁해라",
  "3849": "▁오는데",
  "3850": "▁거기다가",
  "3851": "▁입장에서는",
  "3852": "동에",
  "3853": "로만",
  "3854": "질이",
  "3855": "▁국민",
  "3856": "▁보일",
  "3857": "▁후배",
  "3858": "해주는",
  "3859": "▁끝났어",
  "3860": "▁하기로",
  "3861": "▁핸드폰을",
  "3862": "오고",
  "3863": "▁됐을",
  "3864": "▁북한",
  "3865": "▁집도",
  "3866": "▁케이",
  "3867": "▁부럽다",
  "3868": "준다",
  "3869": "▁가나",
  "3870": "▁물리",
  "3871": "▁캐나",
  "3872": "▁하늘",
  "3873": "▁대단한",
  "3874": "▁말했던",
  "3875": "▁힘들어서",
  "3876": "▁셀",
  "3877": "먹고",
  "3878": "주지",
  "3879": "▁써서",
  "3880": "▁어떠",
  "3881": "▁책이",
  "3882": "▁칠만",
  "3883": "▁탈출",
  "3884": "▁홍보",
  "3885": "▁스토리",
  "3886": "▁위주로",
  "3887": "우면",
  "3888": "▁고마",
  "3889": "▁동남",
  "3890": "▁막내",
  "3891": "▁성인",
  "3892": "▁정상",
  "3893": "▁죄송",
  "3894": "▁진지",
  "3895": "▁갔었어",
  "3896": "▁뮤지컬",
  "3897": "▁할머니가",
  "3898": "▁해외여행",
  "3899": "롭게",
  "3900": "없는",
  "3901": "학원",
  "3902": "▁마트",
  "3903": "▁상상",
  "3904": "▁알어",
  "3905": "이어서",
  "3906": "▁마음을",
  "3907": "▁생각하지",
  "3908": "르면",
  "3909": "위가",
  "3910": "▁길이",
  "3911": "▁먹기",
  "3912": "▁잠을",
  "3913": "▁주차",
  "3914": "▁후반",
  "3915": "봐야지",
  "3916": "▁나가면",
  "3917": "했대",
  "3918": "▁말까",
  "3919": "▁스테",
  "3920": "▁읽는",
  "3921": "스크림",
  "3922": "▁재밌지",
  "3923": "▁견",
  "3924": "겠고",
  "3925": "랑은",
  "3926": "사도",
  "3927": "점을",
  "3928": "▁당구",
  "3929": "▁모를",
  "3930": "▁산책",
  "3931": "▁일만",
  "3932": "▁걔네들",
  "3933": "▁돌아다",
  "3934": "▁않으니까",
  "3935": "로도",
  "3936": "▁너를",
  "3937": "▁방향",
  "3938": "▁빠진",
  "3939": "▁제발",
  "3940": "▁경기도",
  "3941": "▁일본에",
  "3942": "▁일인가",
  "3943": "▁취업을",
  "3944": "▁케이크",
  "3945": "▁나왔잖아",
  "3946": "▁대박이다",
  "3947": "▁비슷하게",
  "3948": "▁있겠지만",
  "3949": "▁친구들은",
  "3950": "더만",
  "3951": "▁나의",
  "3952": "▁몰래",
  "3953": "▁어뜨",
  "3954": "▁인강",
  "3955": "▁종이",
  "3956": "▁머리를",
  "3957": "▁볼려고",
  "3958": "▁아저씨가",
  "3959": "▁애들끼리",
  "3960": "▁O",
  "3961": "▁보인",
  "3962": "▁언어",
  "3963": "▁좋대",
  "3964": "▁평균",
  "3965": "셔가지고",
  "3966": "▁팩",
  "3967": "▁그려",
  "3968": "▁서운",
  "3969": "▁욕을",
  "3970": "▁일상",
  "3971": "▁흰색",
  "3972": "이지만",
  "3973": "▁강원도",
  "3974": "▁동영상",
  "3975": "▁마시는",
  "3976": "▁살면서",
  "3977": "▁알바가",
  "3978": "▁아이스크림",
  "3979": "▁듯",
  "3980": "리오",
  "3981": "▁경력",
  "3982": "▁조건",
  "3983": "▁생각에",
  "3984": "▁올리고",
  "3985": "▁의미가",
  "3986": "▁잠깐만",
  "3987": "▁나가지고",
  "3988": "▁봐가지고",
  "3989": "음이",
  "3990": "▁와야",
  "3991": "▁천천",
  "3992": "▁가다가",
  "3993": "▁것들을",
  "3994": "▁어린이",
  "3995": "▁원이야",
  "3996": "▁있더라",
  "3997": "▁자동차",
  "3998": "▁테이블",
  "3999": "▁모르잖아",
  "4000": "▁I",
  "4001": "비도",
  "4002": "▁감정",
  "4003": "▁단순",
  "4004": "▁쓸데",
  "4005": "▁어떨",
  "4006": "▁육천",
  "4007": "▁괜찮네",
  "4008": "▁다르게",
  "4009": "▁보내고",
  "4010": "▁천천히",
  "4011": "니스",
  "4012": "▁걸릴",
  "4013": "▁결론",
  "4014": "▁골목",
  "4015": "▁단기",
  "4016": "▁당시",
  "4017": "▁라멘",
  "4018": "▁밥도",
  "4019": "▁아휴",
  "4020": "해주고",
  "4021": "▁동남아",
  "4022": "▁받으면",
  "4023": "▁들어오는",
  "4024": "▁먹으면은",
  "4025": "▁좋으니까",
  "4026": "는다",
  "4027": "도로",
  "4028": "영이",
  "4029": "▁까페",
  "4030": "▁회계",
  "4031": "▁시작을",
  "4032": "▁신기해",
  "4033": "▁잃어버",
  "4034": "▁아니라서",
  "4035": "▁아버지가",
  "4036": "▁왜냐하면",
  "4037": "국수",
  "4038": "▁능력",
  "4039": "▁답이",
  "4040": "▁부대",
  "4041": "▁부탁",
  "4042": "▁얘들",
  "4043": "▁피해",
  "4044": "▁힘이",
  "4045": "▁뒤에서",
  "4046": "▁들었던",
  "4047": "▁유치원",
  "4048": "▁했어요",
  "4049": "▁거기까지",
  "4050": "▁대해서는",
  "4051": "▁.",
  "4052": "도에",
  "4053": "▁소름",
  "4054": "▁일정",
  "4055": "▁패키",
  "4056": "▁다양한",
  "4057": "▁준다고",
  "4058": "▁않았을까",
  "4059": "주에",
  "4060": "학년",
  "4061": "▁개강",
  "4062": "▁불렀",
  "4063": "▁지구",
  "4064": "▁휴대",
  "4065": "▁괜찮고",
  "4066": "▁성적이",
  "4067": "▁애들을",
  "4068": "▁영어로",
  "4069": "▁자체를",
  "4070": "▁생각해서",
  "4071": "겹살",
  "4072": "명이",
  "4073": "문이",
  "4074": "으론",
  "4075": "▁갈지",
  "4076": "▁바이",
  "4077": "▁삼촌",
  "4078": "▁시스",
  "4079": "▁시청",
  "4080": "▁안전",
  "4081": "▁가거나",
  "4082": "▁몰라서",
  "4083": "▁비싸지",
  "4084": "▁생각하",
  "4085": "▁중국어",
  "4086": "▁하자고",
  "4087": "▁그렇겠지",
  "4088": "리에",
  "4089": "면허",
  "4090": "이든",
  "4091": "카드",
  "4092": "▁걸렸",
  "4093": "▁끝날",
  "4094": "었으면",
  "4095": "▁전부터",
  "4096": "▁처음엔",
  "4097": "▁괜찮았어",
  "4098": "사람",
  "4099": "▁기초",
  "4100": "▁말아",
  "4101": "▁유지",
  "4102": "▁종일",
  "4103": "▁친척",
  "4104": "스러운",
  "4105": "▁그전에",
  "4106": "▁먹을까",
  "4107": "▁버리고",
  "4108": "▁수업이",
  "4109": "리게",
  "4110": "▁시원",
  "4111": "▁의견",
  "4112": "▁찍을",
  "4113": "▁한식",
  "4114": "장님이",
  "4115": "한테도",
  "4116": "▁다르잖아",
  "4117": "동이",
  "4118": "시가",
  "4119": "으신",
  "4120": "▁됐나",
  "4121": "▁발라",
  "4122": "▁보긴",
  "4123": "▁보헤",
  "4124": "▁엑스",
  "4125": "▁필라",
  "4126": "▁학번",
  "4127": "▁해리",
  "4128": "▁알아보",
  "4129": "▁걔네들이",
  "4130": "▁생각했어",
  "4131": "▁어머니가",
  "4132": "▁스트레스받",
  "4133": "▁뭐였",
  "4134": "▁오라",
  "4135": "▁종교",
  "4136": "▁공기업",
  "4137": "▁나왔던",
  "4138": "▁다음날",
  "4139": "▁어이가",
  "4140": "▁하나를",
  "4141": "린다",
  "4142": "민이",
  "4143": "생이",
  "4144": "치면",
  "4145": "▁모델",
  "4146": "▁필기",
  "4147": "방에서",
  "4148": "▁계획을",
  "4149": "대요",
  "4150": "번호",
  "4151": "▁꺼야",
  "4152": "▁동갑",
  "4153": "역에서",
  "4154": "▁날씨가",
  "4155": "▁거였는데",
  "4156": "▁물어보는",
  "4157": "▁보헤미안",
  "4158": "▁좋겠는데",
  "4159": "▁가보",
  "4160": "▁년이",
  "4161": "▁도망",
  "4162": "▁무한",
  "4163": "▁",
  "4164": ".",
  "4165": "그",
  "4166": "이",
  "4167": "는",
  "4168": "아",
  "4169": "가",
  "4170": "고",
  "4171": "어",
  "4172": "거",
  "4173": "지",
  "4174": "데",
  "4175": "?",
  "4176": "나",
  "4177": "하",
  "4178": "다",
  "4179": "서",
  "4180": "에",
  "4181": "도",
  "4182": "게",
  "4183": "니",
  "4184": "기",
  "4185": "은",
  "4186": "면",
  "4187": "야",
  "4188": "있",
  "4189": "한",
  "4190": "을",
  "4191": "까",
  "4192": "해",
  "4193": "리",
  "4194": "라",
  "4195": "래",
  "4196": "사",
  "4197": "근",
  "4198": "들",
  "4199": "안",
  "4200": "로",
  "4201": "일",
  "4202": "뭐",
  "4203": "내",
  "4204": "보",
  "4205": "제",
  "4206": "같",
  "4207": "자",
  "4208": "만",
  "4209": "시",
  "4210": "런",
  "4211": "너",
  "4212": "대",
  "4213": "때",
  "4214": "되",
  "4215": "으",
  "4216": "진",
  "4217": "를",
  "4218": "잖",
  "4219": "오",
  "4220": "러",
  "4221": "인",
  "4222": "막",
  "4223": "무",
  "4224": "었",
  "4225": "구",
  "4226": "했",
  "4227": "수",
  "4228": "간",
  "4229": "애",
  "4230": "우",
  "4231": "요",
  "4232": "마",
  "4233": "생",
  "4234": "렇",
  "4235": "냥",
  "4236": "짜",
  "4237": "주",
  "4238": "없",
  "4239": "말",
  "4240": "학",
  "4241": "스",
  "4242": "더",
  "4243": "많",
  "4244": "원",
  "4245": "음",
  "4246": "정",
  "4247": "겠",
  "4248": "여",
  "4249": "먹",
  "4250": "금",
  "4251": "든",
  "4252": "부",
  "4253": "할",
  "4254": "전",
  "4255": "번",
  "4256": "좋",
  "4257": "랑",
  "4258": "네",
  "4259": "람",
  "4260": "약",
  "4261": "건",
  "4262": "각",
  "4263": "좀",
  "4264": "알",
  "4265": "잘",
  "4266": "모",
  "4267": "걸",
  "4268": "것",
  "4269": "상",
  "4270": "려",
  "4271": "장",
  "4272": "히",
  "4273": "않",
  "4274": "맞",
  "4275": "던",
  "4276": "르",
  "4277": "교",
  "4278": "바",
  "4279": "냐",
  "4280": "드",
  "4281": "십",
  "4282": "날",
  "4283": "치",
  "4284": "비",
  "4285": "단",
  "4286": "동",
  "4287": "또",
  "4288": "못",
  "4289": "저",
  "4290": "얘",
  "4291": "중",
  "4292": "의",
  "4293": "난",
  "4294": "엄",
  "4295": "봤",
  "4296": "걔",
  "4297": "화",
  "4298": "응",
  "4299": "싶",
  "4300": "갔",
  "4301": "았",
  "4302": "집",
  "4303": "왜",
  "4304": "계",
  "4305": "공",
  "4306": "긴",
  "4307": "신",
  "4308": "적",
  "4309": "연",
  "4310": "직",
  "4311": "실",
  "4312": "미",
  "4313": "영",
  "4314": "봐",
  "4315": "분",
  "4316": "테",
  "4317": "년",
  "4318": "트",
  "4319": "문",
  "4320": "와",
  "4321": "돼",
  "4322": "물",
  "4323": "예",
  "4324": "세",
  "4325": "터",
  "4326": "럼",
  "4327": "청",
  "4328": "차",
  "4329": "개",
  "4330": "친",
  "4331": "삼",
  "4332": "국",
  "4333": "두",
  "4334": "소",
  "4335": "살",
  "4336": "재",
  "4337": "운",
  "4338": "쫌",
  "4339": "유",
  "4340": "속",
  "4341": "명",
  "4342": "본",
  "4343": "랬",
  "4344": "갈",
  "4345": "방",
  "4346": "돈",
  "4347": "타",
  "4348": "처",
  "4349": "빠",
  "4350": "과",
  "4351": "식",
  "4352": "디",
  "4353": "배",
  "4354": "뭔",
  "4355": "피",
  "4356": "선",
  "4357": "남",
  "4358": "경",
  "4359": "달",
  "4360": "언",
  "4361": "받",
  "4362": "심",
  "4363": "월",
  "4364": "버",
  "4365": "왔",
  "4366": "느",
  "4367": "점",
  "4368": "올",
  "4369": "업",
  "4370": "른",
  "4371": "성",
  "4372": "회",
  "4373": "조",
  "4374": "따",
  "4375": "워",
  "4376": "행",
  "4377": "반",
  "4378": "님",
  "4379": "딱",
  "4380": "관",
  "4381": "입",
  "4382": "카",
  "4383": "당",
  "4384": "였",
  "4385": "케",
  "4386": "쪽",
  "4387": "천",
  "4388": "작",
  "4389": "누",
  "4390": "열",
  "4391": "얼",
  "4392": "울",
  "4393": "찮",
  "4394": "된",
  "4395": "별",
  "4396": "떻",
  "4397": "머",
  "4398": "쓰",
  "4399": "크",
  "4400": "위",
  "4401": "노",
  "4402": "괜",
  "4403": "강",
  "4404": "편",
  "4405": "몰",
  "4406": "맛",
  "4407": "준",
  "4408": "줄",
  "4409": "파",
  "4410": "백",
  "4411": "매",
  "4412": "산",
  "4413": "술",
  "4414": "힘",
  "4415": "프",
  "4416": "즘",
  "4417": "임",
  "4418": "체",
  "4419": "형",
  "4420": "몇",
  "4421": "맨",
  "4422": "새",
  "4423": "용",
  "4424": "키",
  "4425": "통",
  "4426": "양",
  "4427": "끝",
  "4428": "싸",
  "4429": "볼",
  "4430": "혼",
  "4431": "온",
  "4432": "등",
  "4433": "길",
  "4434": "될",
  "4435": "밌",
  "4436": "육",
  "4437": "늘",
  "4438": "슨",
  "4439": "됐",
  "4440": "놀",
  "4441": "외",
  "4442": "팔",
  "4443": "져",
  "4444": "레",
  "4445": "억",
  "4446": "발",
  "4447": "결",
  "4448": "초",
  "4449": "감",
  "4450": "군",
  "4451": "호",
  "4452": "름",
  "4453": "솔",
  "4454": "닌",
  "4455": "밖",
  "4456": "불",
  "4457": "밥",
  "4458": "포",
  "4459": "싫",
  "4460": "완",
  "4461": "갖",
  "4462": "겨",
  "4463": "질",
  "4464": "토",
  "4465": "험",
  "4466": "색",
  "4467": "역",
  "4468": "떤",
  "4469": "갑",
  "4470": "티",
  "4471": "목",
  "4472": "린",
  "4473": "추",
  "4474": "격",
  "4475": "후",
  "4476": "확",
  "4477": "루",
  "4478": "민",
  "4479": "끼",
  "4480": "칠",
  "4481": "돌",
  "4482": "쪼",
  "4483": "찍",
  "4484": "필",
  "4485": "깐",
  "4486": "빨",
  "4487": "났",
  "4488": "락",
  "4489": "박",
  "4490": "끔",
  "4491": "낌",
  "4492": "럴",
  "4493": "취",
  "4494": "복",
  "4495": "둘",
  "4496": "페",
  "4497": "써",
  "4498": "렸",
  "4499": "줘",
  "4500": "력",
  "4501": "급",
  "4502": "잡",
  "4503": "씩",
  "4504": "놓",
  "4505": "찾",
  "4506": "코",
  "4507": "최",
  "4508": "넘",
  "4509": "졌",
  "4510": "브",
  "4511": "섯",
  "4512": "현",
  "4513": "눈",
  "4514": "항",
  "4515": "귀",
  "4516": "설",
  "4517": "벌",
  "4518": "앞",
  "4519": "담",
  "4520": "절",
  "4521": "책",
  "4522": "플",
  "4523": "폰",
  "4524": "종",
  "4525": "태",
  "4526": "옛",
  "4527": "증",
  "4528": "튼",
  "4529": "글",
  "4530": "습",
  "4531": "론",
  "4532": "병",
  "4533": "능",
  "4534": "출",
  "4535": "침",
  "4536": "순",
  "4537": "줬",
  "4538": "평",
  "4539": "메",
  "4540": "똑",
  "4541": "커",
  "4542": "엔",
  "4543": "꾸",
  "4544": "란",
  "4545": "듣",
  "4546": "씨",
  "4547": "큰",
  "4548": "표",
  "4549": "먼",
  "4550": "잠",
  "4551": "쁘",
  "4552": "활",
  "4553": "합",
  "4554": "접",
  "4555": "럽",
  "4556": "옷",
  "4557": "쳐",
  "4558": "손",
  "4559": "붙",
  "4560": "망",
  "4561": "죽",
  "4562": "투",
  "4563": "족",
  "4564": "셨",
  "4565": "참",
  "4566": "떨",
  "4567": "웃",
  "4568": "졸",
  "4569": "쉬",
  "4570": "뭘",
  "4571": "변",
  "4572": "릴",
  "4573": "웠",
  "4574": "즈",
  "4575": "홍",
  "4576": "랐",
  "4577": "독",
  "4578": "충",
  "4579": "짝",
  "4580": "떡",
  "4581": "뒤",
  "4582": "휴",
  "4583": "셔",
  "4584": "넣",
  "4585": "쨌",
  "4586": "악",
  "4587": "패",
  "4588": "빼",
  "4589": "슬",
  "4590": "특",
  "4591": "꺼",
  "4592": "숙",
  "4593": "쯤",
  "4594": "텐",
  "4595": "창",
  "4596": "겼",
  "4597": "판",
  "4598": "굴",
  "4599": "죠",
  "4600": "답",
  "4601": "희",
  "4602": "허",
  "4603": "옆",
  "4604": "료",
  "4605": "닐",
  "4606": "택",
  "4607": "림",
  "4608": "축",
  "4609": "읽",
  "4610": "핸",
  "4611": "풀",
  "4612": "틀",
  "4613": "몸",
  "4614": "골",
  "4615": "켜",
  "4616": "황",
  "4617": "익",
  "4618": "베",
  "4619": "북",
  "4620": "늦",
  "4621": "법",
  "4622": "함",
  "4623": "꼬",
  "4624": "랜",
  "4625": "향",
  "4626": "석",
  "4627": "환",
  "4628": "슷",
  "4629": "품",
  "4630": "혀",
  "4631": "블",
  "4632": "쓸",
  "4633": "채",
  "4634": "욕",
  "4635": "며",
  "4636": "권",
  "4637": "검",
  "4638": "굳",
  "4639": "록",
  "4640": "김",
  "4641": "톡",
  "4642": "넌",
  "4643": "션",
  "4644": "깨",
  "4645": "캐",
  "4646": "송",
  "4647": "녀",
  "4648": "탈",
  "4649": "광",
  "4650": "혹",
  "4651": "퍼",
  "4652": "뽑",
  "4653": "철",
  "4654": "째",
  "4655": "움",
  "4656": "밤",
  "4657": "꼭",
  "4658": "샀",
  "4659": "끊",
  "4660": "땐",
  "4661": "깔",
  "4662": "멀",
  "4663": "께",
  "4664": "높",
  "4665": "큼",
  "4666": "녁",
  "4667": "곳",
  "4668": "잔",
  "4669": "쉽",
  "4670": "짐",
  "4671": "암",
  "4672": "극",
  "4673": "련",
  "4674": "떠",
  "4675": "벽",
  "4676": "헤",
  "4677": "C",
  "4678": "끄",
  "4679": "곱",
  "4680": "착",
  "4681": "승",
  "4682": "봉",
  "4683": "촌",
  "4684": "딩",
  "4685": "껴",
  "4686": "류",
  "4687": "뜨",
  "4688": "넷",
  "4689": "놨",
  "4690": "궁",
  "4691": "곤",
  "4692": "논",
  "4693": "클",
  "4694": "싼",
  "4695": "앉",
  "4696": "컴",
  "4697": "맥",
  "4698": "팀",
  "4699": "썼",
  "4700": "낫",
  "4701": "걱",
  "4702": "튜",
  "4703": "쁜",
  "4704": "킨",
  "4705": "빌",
  "4706": "쿠",
  "4707": "찌",
  "4708": "쌤",
  "4709": "T",
  "4710": "밀",
  "4711": "냈",
  "4712": "빵",
  "4713": "센",
  "4714": "딴",
  "4715": "딸",
  "4716": "쩌",
  "4717": "걍",
  "4718": "획",
  "4719": "씬",
  "4720": "첫",
  "4721": "챙",
  "4722": "범",
  "4723": "굉",
  "4724": "핑",
  "4725": "쩔",
  "4726": "팅",
  "4727": "긍",
  "4728": "뛰",
  "4729": "덟",
  "4730": "탄",
  "4731": "층",
  "4732": "퇴",
  "4733": "춰",
  "4734": "훨",
  "4735": "찬",
  "4736": "듯",
  "4737": "S",
  "4738": "왕",
  "4739": "뉴",
  "4740": "텔",
  "4741": "렌",
  "4742": "탕",
  "4743": "짓",
  "4744": "밑",
  "4745": "헬",
  "4746": "존",
  "4747": "립",
  "4748": "녔",
  "4749": "빡",
  "4750": "꼈",
  "4751": "낮",
  "4752": "링",
  "4753": "견",
  "4754": "볶",
  "4755": "낙",
  "4756": "릭",
  "4757": "퓨",
  "4758": "젠",
  "4759": "츠",
  "4760": "맘",
  "4761": "놔",
  "4762": "렵",
  "4763": "땜",
  "4764": "쇼",
  "4765": "값",
  "4766": "닭",
  "4767": "깝",
  "4768": "픈",
  "4769": "탁",
  "4770": "쓴",
  "4771": "농",
  "4772": "량",
  "4773": "염",
  "4774": "홉",
  "4775": "냄",
  "4776": "척",
  "4777": "콘",
  "4778": "겁",
  "4779": "효",
  "4780": "P",
  "4781": "규",
  "4782": "섭",
  "4783": "꿈",
  "4784": "곡",
  "4785": "액",
  "4786": "쎄",
  "4787": "덜",
  "4788": "턴",
  "4789": "킹",
  "4790": "훈",
  "4791": "쳤",
  "4792": "널",
  "4793": "멋",
  "4794": "꿀",
  "4795": "깜",
  "4796": "낼",
  "4797": "짧",
  "4798": "롤",
  "4799": "꽤",
  "4800": "램",
  "4801": "총",
  "4802": "덕",
  "4803": "믄",
  "4804": "믿",
  "4805": "흥",
  "4806": "롱",
  "4807": "뜻",
  "4808": "짤",
  "4809": "쌍",
  "4810": "닥",
  "4811": "셋",
  "4812": "컨",
  "4813": "잤",
  "4814": "웬",
  "4815": "엽",
  "4816": "찰",
  "4817": "혜",
  "4818": "꿔",
  "4819": "뿌",
  "4820": "뻐",
  "4821": "낸",
  "4822": "빈",
  "4823": "뻔",
  "4824": "쌓",
  "4825": "즐",
  "4826": "튀",
  "4827": "겹",
  "4828": "득",
  "4829": "끌",
  "4830": "V",
  "4831": "M",
  "4832": "녹",
  "4833": "푸",
  "4834": "쭉",
  "4835": "팬",
  "4836": "A",
  "4837": "싱",
  "4838": "!",
  "4839": "념",
  "4840": "맡",
  "4841": "쟁",
  "4842": "엑",
  "4843": "뀌",
  "4844": "켓",
  "4845": "털",
  "4846": "풍",
  "4847": "웨",
  "4848": "땡",
  "4849": "롯",
  "4850": "롭",
  "4851": "젊",
  "4852": "멘",
  "4853": "넓",
  "4854": "칼",
  "4855": "냉",
  "4856": "빙",
  "4857": "뿐",
  "4858": "잉",
  "4859": "옮",
  "4860": "젤",
  "4861": "죄",
  "4862": "B",
  "4863": "탔",
  "4864": "떼",
  "4865": "홀",
  "4866": "샤",
  "4867": "줌",
  "4868": "징",
  "4869": "폭",
  "4870": "G",
  "4871": "킬",
  "4872": "딜",
  "4873": "흔",
  "4874": "슈",
  "4875": "율",
  "4876": "즌",
  "4877": "씀",
  "4878": "눠",
  "4879": "앙",
  "4880": "콩",
  "4881": "숨",
  "4882": "얻",
  "4883": "닝",
  "4884": "꽃",
  "4885": "쌀",
  "4886": "컬",
  "4887": "춤",
  "4888": "c",
  "4889": "뚫",
  "4890": "엠",
  "4891": "D",
  "4892": "몬",
  "4893": "흐",
  "4894": "똥",
  "4895": "앤",
  "4896": "콜",
  "4897": "델",
  "4898": "렀",
  "4899": "폐",
  "4900": "엘",
  "4901": "랄",
  "4902": "쁠",
  "4903": "걘",
  "4904": "벤",
  "4905": "씻",
  "4906": "률",
  "4907": "봄",
  "4908": "왠",
  "4909": "웹",
  "4910": "짱",
  "4911": "켰",
  "4912": "럭",
  "4913": "압",
  "4914": "땅",
  "4915": "댓",
  "4916": "깊",
  "4917": "랩",
  "4918": "멍",
  "4919": "뮤",
  "4920": "령",
  "4921": "릿",
  "4922": "낀",
  "4923": "룸",
  "4924": "옥",
  "4925": "윤",
  "4926": "딘",
  "4927": "객",
  "4928": "컵",
  "4929": "댄",
  "4930": "폴",
  "4931": "쟤",
  "4932": "뷰",
  "4933": "덴",
  "4934": "템",
  "4935": "눌",
  "4936": "캠",
  "4937": "벨",
  "4938": "삶",
  "4939": "삭",
  "4940": "홈",
  "4941": "엉",
  "4942": "헐",
  "4943": "벗",
  "4944": "벅",
  "4945": "혈",
  "4946": "밍",
  "4947": "춥",
  "4948": "낭",
  "4949": "셀",
  "4950": "잃",
  "4951": "릉",
  "4952": "I",
  "4953": "t",
  "4954": "놈",
  "4955": "춘",
  "4956": "걷",
  "4957": "찜",
  "4958": "R",
  "4959": "삐",
  "4960": "헌",
  "4961": "딨",
  "4962": "닫",
  "4963": "빛",
  "4964": "흘",
  "4965": "균",
  "4966": "L",
  "4967": "좌",
  "4968": "p",
  "4969": "껄",
  "4970": "펜",
  "4971": "싹",
  "4972": "N",
  "4973": "탑",
  "4974": "쏘",
  "4975": "O",
  "4976": "픽",
  "4977": "햄",
  "4978": "곧",
  "4979": "덩",
  "4980": "힐",
  "4981": "큐",
  "4982": "낳",
  "4983": "툰",
  "4984": "팩",
  "4985": "힌",
  "4986": "뒷",
  "4987": "섬",
  "4988": "꽂",
  "4989": "례",
  "4990": "섞",
  "4991": "흰",
  "4992": "둥",
  "4993": "촬",
  "4994": "핫",
  "4995": "K",
  "4996": "s",
  "4997": "괴",
  "4998": "핀",
  "4999": "꿨",
  "5000": "<blank>"
}